#include "magic_wand_model_data.h"

// We need to keep the data array aligned on some architectures.
#ifdef __has_attribute
#define HAVE_ATTRIBUTE(x) __has_attribute(x)
#else
#define HAVE_ATTRIBUTE(x) 0
#endif
#if HAVE_ATTRIBUTE(aligned) || (defined(__GNUC__) && !defined(__clang__))
#define DATA_ALIGN_ATTRIBUTE __attribute__((aligned(4)))
#else
#define DATA_ALIGN_ATTRIBUTE
#endif




const unsigned char g_magic_wand_model_data[] DATA_ALIGN_ATTRIBUTE = {
  0x08, 0x00, 0x00, 0x00, 0x54, 0x46, 0x4c, 0x33, 0x62, 0xff, 0xff, 0xff,
  0x03, 0x00, 0x00, 0x00, 0x10, 0x00, 0x00, 0x00, 0x24, 0x00, 0x00, 0x00,
  0x78, 0x00, 0x00, 0x00, 0x24, 0x00, 0x00, 0x00, 0x05, 0x00, 0x00, 0x00,
  0x78, 0x05, 0x00, 0x00, 0xb0, 0x04, 0x00, 0x00, 0xe0, 0x02, 0x00, 0x00,
  0x60, 0x02, 0x00, 0x00, 0x54, 0x01, 0x00, 0x00, 0x01, 0x00, 0x00, 0x00,
  0x78, 0x00, 0x00, 0x00, 0x13, 0x00, 0x00, 0x00, 0xd4, 0x2f, 0x00, 0x00,
  0xd0, 0x2f, 0x00, 0x00, 0xdc, 0x2e, 0x00, 0x00, 0x68, 0x2e, 0x00, 0x00,
  0xfc, 0x2d, 0x00, 0x00, 0xac, 0x11, 0x00, 0x00, 0x98, 0x10, 0x00, 0x00,
  0xbc, 0x0e, 0x00, 0x00, 0x60, 0x06, 0x00, 0x00, 0xfc, 0x05, 0x00, 0x00,
  0x78, 0x05, 0x00, 0x00, 0xa8, 0x2f, 0x00, 0x00, 0xa4, 0x2f, 0x00, 0x00,
  0xa0, 0x2f, 0x00, 0x00, 0x9c, 0x2f, 0x00, 0x00, 0x98, 0x2f, 0x00, 0x00,
  0x94, 0x2f, 0x00, 0x00, 0x90, 0x2f, 0x00, 0x00, 0x8c, 0x2f, 0x00, 0x00,
  0x0f, 0x00, 0x00, 0x00, 0x4d, 0x4c, 0x49, 0x52, 0x20, 0x43, 0x6f, 0x6e,
  0x76, 0x65, 0x72, 0x74, 0x65, 0x64, 0x2e, 0x00, 0x00, 0x00, 0x0e, 0x00,
  0x18, 0x00, 0x04, 0x00, 0x08, 0x00, 0x0c, 0x00, 0x10, 0x00, 0x14, 0x00,
  0x0e, 0x00, 0x00, 0x00, 0x14, 0x00, 0x00, 0x00, 0x5c, 0x00, 0x00, 0x00,
  0x60, 0x00, 0x00, 0x00, 0x64, 0x00, 0x00, 0x00, 0x84, 0x00, 0x00, 0x00,
  0x12, 0x00, 0x00, 0x00, 0x04, 0x2f, 0x00, 0x00, 0xa0, 0x2e, 0x00, 0x00,
  0xf8, 0x2d, 0x00, 0x00, 0x98, 0x2d, 0x00, 0x00, 0x30, 0x2d, 0x00, 0x00,
  0xdc, 0x10, 0x00, 0x00, 0xc0, 0x0f, 0x00, 0x00, 0xe4, 0x0d, 0x00, 0x00,
  0xa0, 0x05, 0x00, 0x00, 0x3c, 0x05, 0x00, 0x00, 0xb0, 0x04, 0x00, 0x00,
  0xe8, 0x03, 0x00, 0x00, 0x38, 0x03, 0x00, 0x00, 0xa4, 0x02, 0x00, 0x00,
  0x10, 0x02, 0x00, 0x00, 0x90, 0x01, 0x00, 0x00, 0xfc, 0x00, 0x00, 0x00,
  0x80, 0x00, 0x00, 0x00, 0x01, 0x00, 0x00, 0x00, 0x00, 0x00, 0x00, 0x00,
  0x01, 0x00, 0x00, 0x00, 0x11, 0x00, 0x00, 0x00, 0x08, 0x00, 0x00, 0x00,
  0x1c, 0x04, 0x00, 0x00, 0x58, 0x03, 0x00, 0x00, 0xc8, 0x02, 0x00, 0x00,
  0x24, 0x02, 0x00, 0x00, 0xac, 0x01, 0x00, 0x00, 0x10, 0x01, 0x00, 0x00,
  0x94, 0x00, 0x00, 0x00, 0x10, 0x00, 0x00, 0x00, 0x04, 0x00, 0x00, 0x00,
  0x6d, 0x61, 0x69, 0x6e, 0x00, 0x00, 0x00, 0x00, 0x8e, 0xff, 0xff, 0xff,
  0x00, 0x00, 0x00, 0x09, 0x04, 0x00, 0x00, 0x00, 0x1c, 0x00, 0x00, 0x00,
  0x10, 0x00, 0x00, 0x00, 0x04, 0x00, 0x00, 0x00, 0x4e, 0xd2, 0xff, 0xff,
  0x00, 0x00, 0x80, 0x3f, 0x01, 0x00, 0x00, 0x00, 0x11, 0x00, 0x00, 0x00,
  0x01, 0x00, 0x00, 0x00, 0x10, 0x00, 0x00, 0x00, 0xf6, 0xfb, 0xff, 0xff,
  0x00, 0x00, 0x00, 0x19, 0x01, 0x00, 0x00, 0x00, 0xce, 0xd1, 0xff, 0xff,
  0x10, 0x00, 0x00, 0x00, 0x12, 0x00, 0x00, 0x00, 0x14, 0x00, 0x00, 0x00,
  0x20, 0x00, 0x00, 0x00, 0x02, 0x00, 0x00, 0x00, 0x01, 0x00, 0x00, 0x00,
  0x03, 0x00, 0x00, 0x00, 0x08, 0x00, 0x00, 0x00, 0x49, 0x64, 0x65, 0x6e,
  0x74, 0x69, 0x74, 0x79, 0x00, 0x00, 0x00, 0x00, 0x08, 0xd2, 0xff, 0xff,
  0x00, 0x00, 0x0e, 0x00, 0x18, 0x00, 0x08, 0x00, 0x0c, 0x00, 0x10, 0x00,
  0x07, 0x00, 0x14, 0x00, 0x0e, 0x00, 0x00, 0x00, 0x00, 0x00, 0x00, 0x08,
  0x03, 0x00, 0x00, 0x00, 0x18, 0x00, 0x00, 0x00, 0x0c, 0x00, 0x00, 0x00,
  0x04, 0x00, 0x00, 0x00, 0xdc, 0xd1, 0xff, 0xff, 0x01, 0x00, 0x00, 0x00,
  0x10, 0x00, 0x00, 0x00, 0x03, 0x00, 0x00, 0x00, 0x0f, 0x00, 0x00, 0x00,
  0x05, 0x00, 0x00, 0x00, 0x02, 0x00, 0x00, 0x00, 0x46, 0xd2, 0xff, 0xff,
  0x10, 0x00, 0x00, 0x00, 0x11, 0x00, 0x00, 0x00, 0x14, 0x00, 0x00, 0x00,
  0x30, 0x00, 0x00, 0x00, 0x02, 0x00, 0x00, 0x00, 0x01, 0x00, 0x00, 0x00,
  0x03, 0x00, 0x00, 0x00, 0x1a, 0x00, 0x00, 0x00, 0x73, 0x65, 0x71, 0x75,
  0x65, 0x6e, 0x74, 0x69, 0x61, 0x6c, 0x2f, 0x64, 0x65, 0x6e, 0x73, 0x65,
  0x5f, 0x31, 0x2f, 0x42, 0x69, 0x61, 0x73, 0x41, 0x64, 0x64, 0x00, 0x00,
  0x38, 0xd2, 0xff, 0xff, 0xd6, 0xfd, 0xff, 0xff, 0x00, 0x00, 0x00, 0x08,
  0x03, 0x00, 0x00, 0x00, 0x24, 0x00, 0x00, 0x00, 0x18, 0x00, 0x00, 0x00,
  0x0c, 0x00, 0x00, 0x00, 0x00, 0x00, 0x06, 0x00, 0x08, 0x00, 0x07, 0x00,
  0x06, 0x00, 0x00, 0x00, 0x00, 0x00, 0x00, 0x01, 0x01, 0x00, 0x00, 0x00,
  0x0f, 0x00, 0x00, 0x00, 0x03, 0x00, 0x00, 0x00, 0x0e, 0x00, 0x00, 0x00,
  0x04, 0x00, 0x00, 0x00, 0x01, 0x00, 0x00, 0x00, 0xfe, 0xfc, 0xff, 0xff,
  0x00, 0x00, 0x00, 0x09, 0x01, 0x00, 0x00, 0x00, 0xd6, 0xd2, 0xff, 0xff,
  0x10, 0x00, 0x00, 0x00, 0x10, 0x00, 0x00, 0x00, 0x14, 0x00, 0x00, 0x00,
  0x2c, 0x00, 0x00, 0x00, 0x02, 0x00, 0x00, 0x00, 0x01, 0x00, 0x00, 0x00,
  0x10, 0x00, 0x00, 0x00, 0x15, 0x00, 0x00, 0x00, 0x73, 0x65, 0x71, 0x75,
  0x65, 0x6e, 0x74, 0x69, 0x61, 0x6c, 0x2f, 0x64, 0x65, 0x6e, 0x73, 0x65,
  0x2f, 0x52, 0x65, 0x6c, 0x75, 0x00, 0x00, 0x00, 0x1c, 0xd3, 0xff, 0xff,
  0x00, 0x00, 0x0a, 0x00, 0x10, 0x00, 0x04, 0x00, 0x08, 0x00, 0x0c, 0x00,
  0x0a, 0x00, 0x00, 0x00, 0x02, 0x00, 0x00, 0x00, 0x10, 0x00, 0x00, 0x00,
  0x04, 0x00, 0x00, 0x00, 0x01, 0x00, 0x00, 0x00, 0x0e, 0x00, 0x00, 0x00,
  0x02, 0x00, 0x00, 0x00, 0x0d, 0x00, 0x00, 0x00, 0x03, 0x00, 0x00, 0x00,
  0x7a, 0xfd, 0xff, 0xff, 0x00, 0x00, 0x00, 0x16, 0x01, 0x00, 0x00, 0x00,
  0x52, 0xd3, 0xff, 0xff, 0x10, 0x00, 0x00, 0x00, 0x0f, 0x00, 0x00, 0x00,
  0x14, 0x00, 0x00, 0x00, 0x30, 0x00, 0x00, 0x00, 0x02, 0x00, 0x00, 0x00,
  0x01, 0x00, 0x00, 0x00, 0x70, 0x00, 0x00, 0x00, 0x1a, 0x00, 0x00, 0x00,
  0x73, 0x65, 0x71, 0x75, 0x65, 0x6e, 0x74, 0x69, 0x61, 0x6c, 0x2f, 0x66,
  0x6c, 0x61, 0x74, 0x74, 0x65, 0x6e, 0x2f, 0x52, 0x65, 0x73, 0x68, 0x61,
  0x70, 0x65, 0x00, 0x00, 0x44, 0xd3, 0xff, 0xff, 0xe2, 0xfe, 0xff, 0xff,
  0x00, 0x00, 0x00, 0x05, 0x01, 0x00, 0x00, 0x00, 0x38, 0x00, 0x00, 0x00,
  0x2c, 0x00, 0x00, 0x00, 0x14, 0x00, 0x00, 0x00, 0x00, 0x00, 0x0e, 0x00,
  0x14, 0x00, 0x00, 0x00, 0x10, 0x00, 0x0c, 0x00, 0x08, 0x00, 0x04, 0x00,
  0x0e, 0x00, 0x00, 0x00, 0x03, 0x00, 0x00, 0x00, 0x01, 0x00, 0x00, 0x00,
  0x03, 0x00, 0x00, 0x00, 0x01, 0x00, 0x00, 0x00, 0x01, 0x00, 0x00, 0x00,
  0x0d, 0x00, 0x00, 0x00, 0x01, 0x00, 0x00, 0x00, 0x0c, 0x00, 0x00, 0x00,
  0xe2, 0xd3, 0xff, 0xff, 0x10, 0x00, 0x00, 0x00, 0x0e, 0x00, 0x00, 0x00,
  0x1c, 0x00, 0x00, 0x00, 0x40, 0x00, 0x00, 0x00, 0x04, 0x00, 0x00, 0x00,
  0x01, 0x00, 0x00, 0x00, 0x07, 0x00, 0x00, 0x00, 0x01, 0x00, 0x00, 0x00,
  0x10, 0x00, 0x00, 0x00, 0x22, 0x00, 0x00, 0x00, 0x73, 0x65, 0x71, 0x75,
  0x65, 0x6e, 0x74, 0x69, 0x61, 0x6c, 0x2f, 0x6d, 0x61, 0x78, 0x5f, 0x70,
  0x6f, 0x6f, 0x6c, 0x69, 0x6e, 0x67, 0x32, 0x64, 0x5f, 0x31, 0x2f, 0x4d,
  0x61, 0x78, 0x50, 0x6f, 0x6f, 0x6c, 0x00, 0x00, 0xe4, 0xd3, 0xff, 0xff,
  0xc2, 0xfe, 0xff, 0xff, 0x00, 0x00, 0x00, 0x01, 0x24, 0x00, 0x00, 0x00,
  0x18, 0x00, 0x00, 0x00, 0x04, 0x00, 0x00, 0x00, 0xb4, 0xfe, 0xff, 0xff,
  0x01, 0x00, 0x00, 0x00, 0x01, 0x00, 0x00, 0x00, 0x00, 0x00, 0x00, 0x01,
  0x01, 0x00, 0x00, 0x00, 0x0c, 0x00, 0x00, 0x00, 0x03, 0x00, 0x00, 0x00,
  0x0b, 0x00, 0x00, 0x00, 0x07, 0x00, 0x00, 0x00, 0x09, 0x00, 0x00, 0x00,
  0x72, 0xd4, 0xff, 0xff, 0x10, 0x00, 0x00, 0x00, 0x0d, 0x00, 0x00, 0x00,
  0x1c, 0x00, 0x00, 0x00, 0x2c, 0x00, 0x00, 0x00, 0x04, 0x00, 0x00, 0x00,
  0x01, 0x00, 0x00, 0x00, 0x15, 0x00, 0x00, 0x00, 0x01, 0x00, 0x00, 0x00,
  0x10, 0x00, 0x00, 0x00, 0x0c, 0x00, 0x00, 0x00, 0x74, 0x66, 0x6c, 0x2e,
  0x63, 0x6f, 0x6e, 0x76, 0x5f, 0x32, 0x64, 0x31, 0x00, 0x00, 0x00, 0x00,
  0xb8, 0xd4, 0xff, 0xff, 0x00, 0x00, 0x0e, 0x00, 0x1a, 0x00, 0x08, 0x00,
  0x0c, 0x00, 0x10, 0x00, 0x07, 0x00, 0x14, 0x00, 0x0e, 0x00, 0x00, 0x00,
  0x00, 0x00, 0x00, 0x05, 0x01, 0x00, 0x00, 0x00, 0x3c, 0x00, 0x00, 0x00,
  0x30, 0x00, 0x00, 0x00, 0x14, 0x00, 0x00, 0x00, 0x00, 0x00, 0x0e, 0x00,
  0x18, 0x00, 0x17, 0x00, 0x10, 0x00, 0x0c, 0x00, 0x08, 0x00, 0x04, 0x00,
  0x0e, 0x00, 0x00, 0x00, 0x03, 0x00, 0x00, 0x00, 0x03, 0x00, 0x00, 0x00,
  0x03, 0x00, 0x00, 0x00, 0x03, 0x00, 0x00, 0x00, 0x00, 0x00, 0x00, 0x01,
  0x01, 0x00, 0x00, 0x00, 0x0b, 0x00, 0x00, 0x00, 0x01, 0x00, 0x00, 0x00,
  0x0a, 0x00, 0x00, 0x00, 0x46, 0xff, 0xff, 0xff, 0x00, 0x00, 0x00, 0x11,
  0x01, 0x00, 0x00, 0x00, 0x1e, 0xd5, 0xff, 0xff, 0x10, 0x00, 0x00, 0x00,
  0x0c, 0x00, 0x00, 0x00, 0x1c, 0x00, 0x00, 0x00, 0x40, 0x00, 0x00, 0x00,
  0x04, 0x00, 0x00, 0x00, 0x01, 0x00, 0x00, 0x00, 0x15, 0x00, 0x00, 0x00,
  0x01, 0x00, 0x00, 0x00, 0x08, 0x00, 0x00, 0x00, 0x20, 0x00, 0x00, 0x00,
  0x73, 0x65, 0x71, 0x75, 0x65, 0x6e, 0x74, 0x69, 0x61, 0x6c, 0x2f, 0x6d,
  0x61, 0x78, 0x5f, 0x70, 0x6f, 0x6f, 0x6c, 0x69, 0x6e, 0x67, 0x32, 0x64,
  0x2f, 0x4d, 0x61, 0x78, 0x50, 0x6f, 0x6f, 0x6c, 0x00, 0x00, 0x00, 0x00,
  0x78, 0xd5, 0xff, 0xff, 0x00, 0x00, 0x0e, 0x00, 0x14, 0x00, 0x00, 0x00,
  0x08, 0x00, 0x0c, 0x00, 0x07, 0x00, 0x10, 0x00, 0x0e, 0x00, 0x00, 0x00,
  0x00, 0x00, 0x00, 0x01, 0x30, 0x00, 0x00, 0x00, 0x24, 0x00, 0x00, 0x00,
  0x10, 0x00, 0x00, 0x00, 0x0c, 0x00, 0x10, 0x00, 0x00, 0x00, 0x04, 0x00,
  0x08, 0x00, 0x0f, 0x00, 0x0c, 0x00, 0x00, 0x00, 0x01, 0x00, 0x00, 0x00,
  0x01, 0x00, 0x00, 0x00, 0x00, 0x00, 0x00, 0x01, 0x01, 0x00, 0x00, 0x00,
  0x0a, 0x00, 0x00, 0x00, 0x03, 0x00, 0x00, 0x00, 0x00, 0x00, 0x00, 0x00,
  0x06, 0x00, 0x00, 0x00, 0x08, 0x00, 0x00, 0x00, 0x00, 0x00, 0x0a, 0x00,
  0x0c, 0x00, 0x07, 0x00, 0x00, 0x00, 0x08, 0x00, 0x0a, 0x00, 0x00, 0x00,
  0x00, 0x00, 0x00, 0x03, 0x01, 0x00, 0x00, 0x00, 0xe2, 0xd5, 0xff, 0xff,
  0x10, 0x00, 0x00, 0x00, 0x0b, 0x00, 0x00, 0x00, 0x1c, 0x00, 0x00, 0x00,
  0x28, 0x00, 0x00, 0x00, 0x04, 0x00, 0x00, 0x00, 0x01, 0x00, 0x00, 0x00,
  0x40, 0x00, 0x00, 0x00, 0x03, 0x00, 0x00, 0x00, 0x08, 0x00, 0x00, 0x00,
  0x0b, 0x00, 0x00, 0x00, 0x74, 0x66, 0x6c, 0x2e, 0x63, 0x6f, 0x6e, 0x76,
  0x5f, 0x32, 0x64, 0x00, 0xcc, 0xd5, 0xff, 0xff, 0xc2, 0xd6, 0xff, 0xff,
  0x04, 0x00, 0x00, 0x00, 0x40, 0x00, 0x00, 0x00, 0x01, 0x5d, 0x4a, 0xbf,
  0x77, 0x3c, 0xe4, 0xbf, 0xa1, 0x1b, 0x53, 0x3f, 0x84, 0xd6, 0x09, 0xc0,
  0x81, 0xe2, 0x66, 0xbf, 0xfe, 0xd7, 0x07, 0xbe, 0x69, 0xad, 0xe7, 0x3f,
  0x10, 0x5c, 0x1d, 0x3f, 0x7d, 0x40, 0x51, 0xbd, 0x45, 0xf0, 0x86, 0xbe,
  0x82, 0x4c, 0x2e, 0xbe, 0xd9, 0x15, 0x52, 0xbe, 0x38, 0x02, 0xc2, 0xbf,
  0x01, 0x89, 0x2c, 0xbf, 0x15, 0x29, 0x23, 0x40, 0xb2, 0xaa, 0x56, 0xbd,
  0x6a, 0xd6, 0xff, 0xff, 0x10, 0x00, 0x00, 0x00, 0x0a, 0x00, 0x00, 0x00,
  0x10, 0x00, 0x00, 0x00, 0x20, 0x00, 0x00, 0x00, 0x01, 0x00, 0x00, 0x00,
  0x10, 0x00, 0x00, 0x00, 0x0d, 0x00, 0x00, 0x00, 0x73, 0x74, 0x64, 0x2e,
  0x63, 0x6f, 0x6e, 0x73, 0x74, 0x61, 0x6e, 0x74, 0x31, 0x00, 0x00, 0x00,
  0x4c, 0xd6, 0xff, 0xff, 0x42, 0xd7, 0xff, 0xff, 0x04, 0x00, 0x00, 0x00,
  0x20, 0x00, 0x00, 0x00, 0xdc, 0xdd, 0x07, 0xbf, 0x01, 0x08, 0xa9, 0x3e,
  0xde, 0x33, 0xfb, 0xbf, 0xa0, 0x15, 0x24, 0xbf, 0x4e, 0x5b, 0x15, 0xc0,
  0x13, 0xfd, 0x0c, 0xc0, 0xf3, 0x58, 0x16, 0x3e, 0x81, 0xf2, 0x2c, 0xc0,
  0xca, 0xd6, 0xff, 0xff, 0x10, 0x00, 0x00, 0x00, 0x09, 0x00, 0x00, 0x00,
  0x10, 0x00, 0x00, 0x00, 0x20, 0x00, 0x00, 0x00, 0x01, 0x00, 0x00, 0x00,
  0x08, 0x00, 0x00, 0x00, 0x0c, 0x00, 0x00, 0x00, 0x73, 0x74, 0x64, 0x2e,
  0x63, 0x6f, 0x6e, 0x73, 0x74, 0x61, 0x6e, 0x74, 0x00, 0x00, 0x00, 0x00,
  0xac, 0xd6, 0xff, 0xff, 0xa2, 0xd7, 0xff, 0xff, 0x04, 0x00, 0x00, 0x00,
  0x00, 0x08, 0x00, 0x00, 0xd8, 0x4e, 0x0c, 0xbf, 0x66, 0xdc, 0x43, 0x3e,
  0x85, 0x80, 0x1f, 0xbf, 0xc0, 0x70, 0x92, 0xbe, 0x25, 0x11, 0x03, 0x3f,
  0x44, 0x8e, 0xda, 0x3e, 0x00, 0x73, 0x5c, 0xbe, 0x25, 0x43, 0xc5, 0xbd,
  0x9c, 0xce, 0x0f, 0xbf, 0x8f, 0xb7, 0xfc, 0xbd, 0x10, 0x3b, 0x48, 0xbe,
  0x0d, 0xf1, 0xa9, 0xbe, 0xc0, 0xe6, 0x47, 0x3e, 0x22, 0xf6, 0x68, 0xbe,
  0x14, 0x70, 0xc8, 0xbe, 0xa2, 0x87, 0x44, 0xbe, 0x12, 0x85, 0xc9, 0x3d,
  0x3e, 0x10, 0x25, 0xbe, 0x23, 0x9e, 0xa9, 0x3e, 0x61, 0xb0, 0x5d, 0xbd,
  0xf1, 0x72, 0x7c, 0x3e, 0xdd, 0x55, 0x74, 0xbe, 0x6f, 0xc1, 0x41, 0x3e,
  0xa6, 0x0a, 0x51, 0xbb, 0xca, 0xe8, 0xf0, 0x3d, 0xcd, 0x9f, 0xcd, 0xbd,
  0xa0, 0xdd, 0xbc, 0x3d, 0xfb, 0xcc, 0x51, 0x3d, 0x17, 0x0d, 0x39, 0xbd,
  0xb2, 0xb7, 0x17, 0xbe, 0x84, 0xd8, 0x6f, 0xbd, 0x96, 0xfb, 0xeb, 0xbd,
  0xc0, 0x4c, 0x8d, 0xbe, 0x9c, 0xba, 0x53, 0x3e, 0x33, 0x52, 0xac, 0xbd,
  0x98, 0x3d, 0x95, 0x3d, 0x0c, 0x32, 0x3f, 0xbd, 0x1d, 0x6e, 0x62, 0x3e,
  0x8a, 0xef, 0x23, 0xbe, 0x7d, 0xf0, 0x0d, 0x3f, 0xb3, 0x82, 0x8a, 0xbe,
  0x83, 0xaa, 0xac, 0xbc, 0x95, 0x5b, 0xe4, 0xbe, 0x02, 0x78, 0xab, 0xbd,
  0x32, 0x7a, 0xab, 0x3e, 0x01, 0xcc, 0x83, 0x3d, 0x97, 0x73, 0xdb, 0xbe,
  0x4e, 0x86, 0xfb, 0x3e, 0x4e, 0x35, 0x33, 0xbd, 0xfb, 0x6c, 0x76, 0xbe,
  0xe3, 0xc1, 0x6a, 0xbe, 0x09, 0xf1, 0x3f, 0xbd, 0x1d, 0xdb, 0xc5, 0x3e,
  0x9f, 0xa0, 0x32, 0xbe, 0xef, 0x69, 0x4a, 0xbd, 0x5d, 0xdf, 0x99, 0xbe,
  0xd4, 0x58, 0xe7, 0x3d, 0x94, 0x17, 0x86, 0xbe, 0x3e, 0xa8, 0x7a, 0x3e,
  0x99, 0x70, 0xd1, 0xbc, 0xce, 0x6b, 0x3c, 0x3e, 0x67, 0xb2, 0x60, 0xbe,
  0xe7, 0x3b, 0xc6, 0x3d, 0xbb, 0x4d, 0xd7, 0xbe, 0x7e, 0x99, 0xbc, 0xbd,
  0xdb, 0xb6, 0x67, 0xbd, 0x6f, 0xb1, 0x76, 0xbe, 0x0b, 0x83, 0xfb, 0xbc,
  0x0e, 0xdb, 0x0e, 0xbc, 0xc2, 0xfc, 0x18, 0xbd, 0x74, 0x03, 0xc7, 0xbc,
  0xef, 0x03, 0x02, 0xbf, 0xdd, 0xc8, 0x7b, 0x3e, 0xd5, 0x2d, 0x8e, 0xbd,
  0xf1, 0x26, 0x14, 0xbe, 0xaf, 0x75, 0x39, 0x3e, 0x28, 0xc1, 0xd1, 0xbe,
  0x7e, 0x2d, 0x85, 0x3d, 0xf0, 0x7a, 0x0e, 0x3d, 0x2b, 0xcf, 0x21, 0xbe,
  0x6d, 0xb0, 0xd9, 0x3b, 0xad, 0x63, 0x25, 0xbd, 0x98, 0x9b, 0x52, 0xbe,
  0xb2, 0x79, 0x83, 0xbd, 0x3d, 0x17, 0xd9, 0xbb, 0xff, 0xe6, 0x0c, 0x3d,
  0x4c, 0x69, 0x9c, 0xbc, 0x61, 0x8d, 0xa3, 0xbe, 0x35, 0x1d, 0x9b, 0x3e,
  0xc1, 0x0e, 0xbe, 0x3d, 0xf5, 0xf7, 0x67, 0xbe, 0xb9, 0x6d, 0xa8, 0x3c,
  0x72, 0xf8, 0x02, 0xbe, 0xa2, 0x69, 0xc0, 0xbd, 0x76, 0x58, 0x81, 0xbc,
  0x4b, 0x7c, 0xde, 0xbe, 0x61, 0xac, 0x32, 0xbe, 0xdd, 0x3f, 0x2f, 0xbd,
  0xa3, 0xde, 0x89, 0x3e, 0x30, 0x7e, 0x93, 0xbd, 0x45, 0xae, 0x8b, 0xbe,
  0xc2, 0xcd, 0xf1, 0xbc, 0x01, 0x57, 0x06, 0x3e, 0x16, 0x45, 0x70, 0x3e,
  0xd5, 0xb7, 0x07, 0xbf, 0xe7, 0x47, 0xc6, 0x3c, 0x2d, 0x30, 0x06, 0xbf,
  0x63, 0xd1, 0x00, 0xbe, 0x9e, 0x88, 0x15, 0xbd, 0xcb, 0xf3, 0xa7, 0x3e,
  0xf1, 0x3e, 0xa6, 0xbd, 0xdf, 0x56, 0x80, 0x3e, 0x23, 0xf0, 0x21, 0xbf,
  0xd4, 0x05, 0x85, 0xbd, 0x29, 0xd0, 0x05, 0xbf, 0x74, 0xdb, 0x46, 0xbe,
  0x36, 0xf7, 0x74, 0x3f, 0x7c, 0xaa, 0x01, 0xbc, 0x79, 0xbf, 0x8d, 0xbe,
  0xa3, 0xff, 0x97, 0xbb, 0x02, 0x8f, 0x9a, 0xbd, 0x81, 0x1c, 0xc9, 0xbd,
  0xb7, 0x79, 0x4e, 0x3d, 0xe5, 0x61, 0x71, 0xbe, 0xaf, 0xd3, 0x07, 0x3f,
  0x2b, 0x3a, 0x5c, 0xbe, 0x9b, 0xd5, 0x2a, 0xbe, 0xa3, 0xeb, 0x0f, 0xbf,
  0x26, 0xd4, 0x47, 0xbc, 0xe3, 0xdf, 0x23, 0xbf, 0x16, 0xbe, 0x9c, 0x3e,
  0x89, 0xd5, 0x7f, 0x3d, 0x21, 0xf4, 0x01, 0x3e, 0x72, 0xd1, 0x6a, 0xbd,
  0x91, 0x55, 0x3b, 0xbe, 0x5b, 0xd8, 0xd4, 0xbd, 0x4b, 0x3e, 0xce, 0x3d,
  0xb9, 0x1f, 0x1c, 0xbf, 0x45, 0xc2, 0xbc, 0x3e, 0x2e, 0x07, 0x37, 0x3d,
  0x69, 0x5c, 0xc5, 0x3e, 0xca, 0x3c, 0xee, 0xbc, 0x75, 0x1a, 0x84, 0xbe,
  0x6a, 0x5c, 0x8b, 0xbd, 0xf7, 0x44, 0x50, 0xbd, 0x42, 0xc8, 0x85, 0xbe,
  0x11, 0xf9, 0x3a, 0xbe, 0x49, 0x5c, 0x6b, 0x3c, 0x12, 0xe8, 0x46, 0xbe,
  0xa5, 0xc8, 0x89, 0xbd, 0x90, 0xe4, 0x8d, 0xbe, 0x2b, 0x4c, 0x82, 0x3e,
  0xfa, 0xe8, 0xdf, 0xbd, 0x47, 0xdd, 0x8a, 0x3d, 0x70, 0xe9, 0x33, 0xbe,
  0x22, 0x28, 0x31, 0xbd, 0x4f, 0x16, 0xa5, 0xbe, 0xc4, 0x36, 0x2f, 0x3c,
  0xb5, 0x55, 0x85, 0xbe, 0x1a, 0x7c, 0x0f, 0x3f, 0x25, 0x25, 0xfc, 0x3b,
  0x0e, 0x93, 0xdf, 0xbd, 0x5a, 0xb3, 0x9e, 0x3b, 0xfa, 0x21, 0xff, 0xbb,
  0x87, 0x5b, 0x82, 0xbe, 0x72, 0x76, 0xa3, 0xbd, 0x92, 0x18, 0x06, 0x3f,
  0x9e, 0x53, 0xf8, 0xbc, 0x7a, 0xfa, 0x4a, 0x3c, 0xf6, 0x31, 0x70, 0xbd,
  0x22, 0x3f, 0x9c, 0x3d, 0xa0, 0x63, 0xe9, 0x3c, 0x37, 0xa7, 0x92, 0xbe,
  0xb5, 0x08, 0xea, 0x3b, 0x0a, 0x7e, 0x8b, 0x3e, 0xc8, 0xe0, 0x74, 0xbe,
  0xf1, 0x7a, 0xa0, 0x3a, 0x43, 0x68, 0xf5, 0xbd, 0xd3, 0x1e, 0x63, 0x3c,
  0x23, 0x98, 0x5f, 0xbd, 0x5f, 0x1f, 0xb1, 0xbe, 0x21, 0x7e, 0x15, 0xbd,
  0xb1, 0x6f, 0x8c, 0xbe, 0xed, 0x5f, 0x92, 0xbe, 0x89, 0xc1, 0x05, 0x3e,
  0x5f, 0x5a, 0x67, 0xbe, 0x13, 0x21, 0xbe, 0x3c, 0x2c, 0x8b, 0xb1, 0xbc,
  0xc4, 0x10, 0x57, 0xbe, 0x50, 0xae, 0x75, 0xbb, 0x00, 0xdb, 0xa9, 0x3d,
  0x46, 0xad, 0x92, 0xbe, 0x63, 0xd7, 0xb8, 0x3d, 0x41, 0x5c, 0x1e, 0x3d,
  0x74, 0xc6, 0xe5, 0x3d, 0xb1, 0x2e, 0x03, 0xbe, 0xb8, 0x1b, 0x9f, 0xbe,
  0x59, 0x4e, 0x49, 0xbe, 0x52, 0x73, 0x1b, 0x3f, 0xb9, 0xc0, 0x60, 0xbd,
  0xc4, 0x31, 0x83, 0x3e, 0x09, 0x49, 0x8b, 0xbd, 0x42, 0xc0, 0x3d, 0xbd,
  0x7c, 0x0c, 0x5c, 0xbe, 0x52, 0xdc, 0xb4, 0xbd, 0xc6, 0x2a, 0x43, 0xbe,
  0x71, 0xd0, 0x16, 0x3d, 0x31, 0x7b, 0x92, 0xbd, 0x4a, 0x63, 0xfe, 0x3c,
  0x3b, 0xba, 0x39, 0xbe, 0x51, 0x25, 0x5c, 0x3d, 0x5e, 0x47, 0x7e, 0xbe,
  0x64, 0xa1, 0x90, 0x3d, 0x4e, 0x3f, 0x96, 0xbe, 0x42, 0x1c, 0xe3, 0x3d,
  0x1f, 0xaa, 0x23, 0x3d, 0x4f, 0x90, 0x6d, 0x3e, 0xfc, 0xe5, 0xc4, 0xbd,
  0x75, 0x77, 0x0a, 0xbc, 0xa3, 0xd9, 0x64, 0xbe, 0x09, 0x0c, 0xf1, 0x3d,
  0x64, 0x04, 0xb2, 0xbe, 0x90, 0xf0, 0xd5, 0xbb, 0x7d, 0xdc, 0xf6, 0xbd,
  0x0a, 0xc7, 0x26, 0xbd, 0xdf, 0xa9, 0x62, 0xbe, 0xc1, 0xbb, 0xba, 0xbe,
  0x09, 0xf4, 0x5c, 0xbd, 0x3e, 0x4e, 0x2e, 0xbd, 0x66, 0xdd, 0xdf, 0xbc,
  0x6c, 0x3a, 0xb6, 0x3c, 0x0c, 0x07, 0x08, 0xbc, 0x5b, 0x70, 0xd1, 0x3c,
  0xfb, 0x7b, 0x47, 0xbd, 0x96, 0x85, 0x7d, 0xbe, 0xaa, 0xe8, 0x68, 0x3e,
  0x89, 0x6f, 0xc6, 0x3d, 0x2b, 0x40, 0xa1, 0x3d, 0x79, 0x5a, 0xdb, 0xbc,
  0x58, 0x25, 0x0b, 0x3f, 0x60, 0x85, 0x68, 0xbd, 0xbd, 0x7d, 0x87, 0xbe,
  0xab, 0xa8, 0x2f, 0xbe, 0xd8, 0xae, 0x3c, 0x3d, 0xe4, 0x33, 0xf7, 0xbe,
  0xd3, 0xc9, 0xc5, 0x3d, 0x0c, 0xd2, 0x80, 0xbe, 0x76, 0xbb, 0x27, 0xbf,
  0xf7, 0x4c, 0xc8, 0xbc, 0xad, 0xef, 0x1e, 0xbe, 0x9e, 0x2a, 0x4b, 0xbe,
  0x86, 0x9d, 0x19, 0x3d, 0xe6, 0x1e, 0x64, 0xbe, 0x38, 0x0b, 0x87, 0x3e,
  0x38, 0x1b, 0x57, 0xbd, 0x5f, 0x21, 0xca, 0xbe, 0x98, 0x36, 0xca, 0xbd,
  0x64, 0x6a, 0x9a, 0x3a, 0x67, 0x22, 0x89, 0x3d, 0x09, 0x6d, 0x16, 0xbd,
  0x0a, 0x6e, 0xe4, 0x3d, 0x50, 0xad, 0xa7, 0xbc, 0xc4, 0x76, 0x1f, 0x3e,
  0x91, 0x77, 0x87, 0xbe, 0x8c, 0x9c, 0xc2, 0x3d, 0x3a, 0x24, 0x0b, 0x3e,
  0x96, 0xf1, 0x71, 0x3e, 0x8a, 0x7c, 0x6b, 0x3c, 0x03, 0x72, 0x8c, 0xbd,
  0xc9, 0x71, 0x85, 0x3d, 0x31, 0xcf, 0x04, 0xbe, 0x4b, 0x80, 0xc0, 0xbd,
  0x72, 0x13, 0x49, 0xbe, 0x89, 0x5d, 0x10, 0xbe, 0x47, 0xf2, 0x93, 0xbd,
  0x5d, 0xe1, 0x82, 0x3c, 0x52, 0xd6, 0xfb, 0xbe, 0x17, 0x4b, 0xda, 0xbc,
  0x3f, 0x1c, 0x88, 0xbe, 0x1c, 0x78, 0x6d, 0x3c, 0x0e, 0x20, 0x13, 0xbe,
  0xbd, 0xb7, 0xa2, 0xbe, 0xe1, 0x07, 0x7e, 0xbd, 0xa3, 0xd5, 0x93, 0x3d,
  0x90, 0x37, 0xc0, 0xbe, 0xf7, 0x77, 0xf2, 0xbc, 0x70, 0x50, 0x85, 0xbe,
  0x91, 0x1b, 0x23, 0x3d, 0x7a, 0xc8, 0xb8, 0x3e, 0xba, 0x71, 0x5d, 0xbe,
  0x3a, 0x68, 0x48, 0x3d, 0x5e, 0x1d, 0x85, 0xbe, 0x33, 0x7c, 0x2b, 0xbd,
  0x0d, 0xf5, 0xb8, 0xbe, 0x20, 0xa7, 0x44, 0x3e, 0x5c, 0x54, 0x9d, 0x3e,
  0x31, 0x94, 0xf6, 0xbd, 0x1c, 0x6f, 0x59, 0xbe, 0xa5, 0x4b, 0x0d, 0xbd,
  0x63, 0xf4, 0xe5, 0xbe, 0x9a, 0x3c, 0xbd, 0x3e, 0x85, 0x28, 0x49, 0xbe,
  0xe8, 0xcf, 0x00, 0xbe, 0xfa, 0x3b, 0x6b, 0x3a, 0x29, 0xfe, 0xcb, 0x3d,
  0xf8, 0x82, 0x81, 0xbe, 0x96, 0x4a, 0x03, 0xbe, 0xa6, 0x5e, 0xe3, 0xbe,
  0xf6, 0x7e, 0x43, 0x3e, 0x28, 0x5f, 0xa0, 0xbe, 0xf3, 0x13, 0xd4, 0x3d,
  0x57, 0x82, 0xf3, 0x3d, 0xa5, 0xdc, 0xb6, 0x3e, 0x96, 0x02, 0xa6, 0xbe,
  0xa2, 0xe2, 0x08, 0xbc, 0xd0, 0x9c, 0x9a, 0xbe, 0x58, 0xb0, 0xc1, 0x3e,
  0xdf, 0x1c, 0xb2, 0xbe, 0x04, 0xdd, 0x08, 0xbd, 0xb7, 0xb7, 0x1c, 0x3e,
  0xa0, 0x39, 0x2e, 0xbe, 0x07, 0x0a, 0x5e, 0xbd, 0x13, 0x4c, 0xf1, 0x3b,
  0x65, 0x6c, 0x53, 0x3e, 0x4e, 0xef, 0xb9, 0x3d, 0x7a, 0xbb, 0x7f, 0xbe,
  0x4f, 0xfa, 0xcf, 0x3d, 0x92, 0x24, 0x9c, 0xbe, 0x10, 0xb1, 0x80, 0xbe,
  0x3b, 0xec, 0x6e, 0xbd, 0x7c, 0x70, 0x38, 0xbc, 0x66, 0xde, 0x97, 0xbd,
  0xad, 0xe6, 0x5e, 0xbe, 0xad, 0x3a, 0x6b, 0xbe, 0x26, 0x4d, 0xc7, 0x3d,
  0xed, 0x0f, 0x97, 0xbe, 0x4f, 0x39, 0x6e, 0xbe, 0x15, 0x47, 0x6f, 0xbd,
  0x35, 0x83, 0x37, 0xbd, 0x89, 0xde, 0x8a, 0x3d, 0x04, 0xf6, 0x69, 0xbe,
  0xd6, 0x30, 0xb7, 0xbe, 0x99, 0xaa, 0x36, 0x3e, 0x77, 0x07, 0x3f, 0xbb,
  0x20, 0xaf, 0x06, 0x3e, 0xc9, 0x7e, 0x45, 0x3e, 0xba, 0x22, 0x0d, 0x3d,
  0x05, 0x74, 0xf0, 0x3c, 0x09, 0x8b, 0xaf, 0x3e, 0x0d, 0xb7, 0x5c, 0xbe,
  0x85, 0x12, 0x0d, 0xbe, 0x2e, 0xa6, 0xb3, 0x3e, 0xd5, 0x03, 0xea, 0xbc,
  0x4e, 0xce, 0xae, 0xbe, 0xbf, 0xbb, 0x3b, 0xbe, 0x23, 0xec, 0x0d, 0xbe,
  0xc3, 0xd1, 0xad, 0x3c, 0x7b, 0x94, 0xf6, 0x3c, 0xf4, 0x1f, 0x83, 0xbe,
  0xe4, 0xd4, 0x65, 0xbe, 0x2a, 0x3a, 0xf5, 0x3d, 0x58, 0x43, 0x75, 0xbd,
  0x80, 0x77, 0x60, 0xbe, 0xe9, 0x05, 0x97, 0x3d, 0xc4, 0x75, 0xa6, 0xbc,
  0xb7, 0x3a, 0xe7, 0x3d, 0x37, 0x8a, 0xda, 0xbd, 0x21, 0x83, 0x7e, 0x3e,
  0xd1, 0xe7, 0x16, 0x3e, 0x6c, 0x11, 0x40, 0x3d, 0xe2, 0x66, 0x4f, 0xbe,
  0x22, 0x0b, 0xf8, 0x3e, 0x62, 0x9f, 0xb2, 0xbe, 0x9e, 0x82, 0xc3, 0x3d,
  0x4d, 0x88, 0x90, 0xbe, 0x68, 0x88, 0x58, 0xbe, 0xe5, 0xc7, 0x25, 0xbe,
  0x8e, 0x72, 0x05, 0x3e, 0xb5, 0xe3, 0x74, 0xbe, 0x44, 0xf8, 0xd0, 0x3d,
  0xdc, 0xbd, 0xf2, 0x3d, 0x7b, 0xe0, 0x79, 0x3d, 0x7d, 0x0d, 0x95, 0xbd,
  0x7f, 0x16, 0x94, 0xbd, 0x57, 0x03, 0x21, 0xbf, 0x29, 0x98, 0x90, 0xbd,
  0x4e, 0x89, 0x7b, 0xbe, 0x57, 0x85, 0x86, 0xbe, 0xb7, 0x53, 0x8b, 0xbd,
  0xdf, 0xba, 0x47, 0xbe, 0x20, 0x4c, 0x8a, 0xbe, 0xd3, 0x21, 0x75, 0xbf,
  0x5b, 0xef, 0x25, 0xbe, 0x09, 0xbd, 0x85, 0xbd, 0xc8, 0xa8, 0xd0, 0xbd,
  0x32, 0x8f, 0xfb, 0xbd, 0x29, 0xbc, 0x7d, 0xbe, 0x57, 0xa4, 0x0c, 0xbe,
  0xcd, 0xa1, 0x0b, 0xbe, 0xcc, 0x7b, 0x30, 0xbe, 0x9d, 0xd7, 0x68, 0xbc,
  0x64, 0xaa, 0x1e, 0xbd, 0x62, 0xc4, 0xc9, 0xbc, 0x9c, 0x1d, 0xc7, 0xbd,
  0x05, 0xa4, 0x14, 0x3f, 0x44, 0x34, 0x87, 0x3d, 0x46, 0x5e, 0x6c, 0x3e,
  0x71, 0x27, 0xfe, 0x3e, 0x72, 0x83, 0xa0, 0xbd, 0x2a, 0xc0, 0x5a, 0x3d,
  0x26, 0xfe, 0x9b, 0x3e, 0x86, 0x9f, 0x8b, 0x3e, 0xea, 0xdd, 0x01, 0x3e,
  0x1d, 0xba, 0x11, 0x3d, 0xf4, 0x24, 0x4f, 0xbc, 0xf0, 0x0a, 0x09, 0x3f,
  0xbb, 0x89, 0xc3, 0xbd, 0x96, 0x52, 0x6b, 0xbf, 0x60, 0x47, 0x26, 0x3e,
  0x5b, 0x14, 0x86, 0x3e, 0x63, 0xb7, 0x27, 0x3e, 0xd1, 0x1e, 0xfa, 0x3d,
  0xcf, 0x17, 0x02, 0xbe, 0xa0, 0x05, 0xe3, 0xbe, 0x24, 0x21, 0x25, 0x3d,
  0x81, 0x6f, 0x38, 0xbf, 0xf3, 0xbd, 0xc5, 0x3e, 0xed, 0xce, 0x84, 0xbc,
  0x9e, 0xac, 0xb6, 0xbc, 0x7b, 0x7f, 0xf5, 0x3d, 0x71, 0x4d, 0x83, 0xbe,
  0x16, 0x50, 0x01, 0xbc, 0x7a, 0xc2, 0xce, 0xbd, 0xa6, 0x8b, 0x3b, 0xbf,
  0xf7, 0xf5, 0x85, 0xbc, 0xce, 0xfd, 0x36, 0xbe, 0xd6, 0xf4, 0xb0, 0xbe,
  0xc6, 0x63, 0x27, 0x3c, 0x57, 0x71, 0xb9, 0xbe, 0xcd, 0x60, 0x20, 0x3e,
  0x59, 0x9e, 0x3b, 0x3c, 0xc8, 0xbb, 0xec, 0xbe, 0xc2, 0x83, 0xbe, 0x3d,
  0x14, 0xd0, 0x93, 0x3d, 0x9d, 0x8d, 0x98, 0x3a, 0xe7, 0x6a, 0xe1, 0xbd,
  0x9c, 0x54, 0xcb, 0xbe, 0xd5, 0x9a, 0xa5, 0xbd, 0xda, 0x13, 0x9f, 0xbf,
  0xef, 0xe7, 0x2e, 0x3e, 0x83, 0x52, 0x8d, 0x3d, 0xc0, 0x01, 0x5e, 0xbe,
  0x1c, 0xcb, 0xe0, 0xbd, 0x8a, 0xec, 0x62, 0xbe, 0x8b, 0xd6, 0x8e, 0xbe,
  0x83, 0xf5, 0x7c, 0xbe, 0xf0, 0x8c, 0x72, 0xbf, 0xcc, 0x78, 0x69, 0x3d,
  0xf2, 0x7e, 0x5b, 0xbd, 0x4d, 0x4a, 0xb5, 0x3e, 0x5c, 0xf4, 0x05, 0xbd,
  0xd5, 0xe4, 0x5e, 0x3d, 0xd1, 0xd4, 0x9d, 0xbe, 0x2a, 0xa2, 0x1d, 0x3e,
  0x83, 0x1a, 0x29, 0xbf, 0xe8, 0x09, 0xa6, 0x3c, 0x74, 0x07, 0xcc, 0xbd,
  0xfa, 0x8a, 0x0b, 0x3e, 0x71, 0x20, 0x48, 0xbe, 0xd5, 0x09, 0xba, 0xba,
  0x37, 0x9c, 0x63, 0xbd, 0x30, 0x2c, 0x72, 0xbe, 0xde, 0x55, 0x50, 0xbf,
  0x7a, 0xfd, 0x33, 0xbc, 0xa1, 0x6f, 0x2a, 0xbd, 0x19, 0x63, 0x99, 0x3e,
  0x44, 0xa3, 0x23, 0xbe, 0x0e, 0xf1, 0x28, 0x3e, 0x40, 0x73, 0x64, 0xbe,
  0x48, 0x69, 0x8d, 0x3d, 0x9d, 0x0b, 0x92, 0x3e, 0xc4, 0xac, 0x4c, 0x3d,
  0xfb, 0x14, 0xdc, 0xbb, 0x5b, 0x5a, 0xb5, 0xbe, 0xac, 0x9d, 0xae, 0x3e,
  0xeb, 0x49, 0x01, 0xbf, 0xd2, 0x38, 0xd8, 0xbd, 0xbc, 0x64, 0xfd, 0x3d,
  0x5b, 0xef, 0x07, 0x3f, 0xc6, 0xee, 0xf0, 0x3d, 0xc2, 0xfd, 0x3f, 0xbd,
  0x97, 0x72, 0xae, 0xbe, 0xad, 0xfa, 0xdd, 0x3d, 0x2a, 0x33, 0x08, 0xbf,
  0x59, 0x96, 0xda, 0xbd, 0xe8, 0x14, 0xeb, 0x3c, 0x2e, 0x0f, 0x10, 0xbe,
  0x7c, 0x5b, 0x9e, 0xbd, 0x58, 0x2e, 0x1c, 0xbd, 0xec, 0xb3, 0x7f, 0xbe,
  0x75, 0xda, 0x3e, 0x3d, 0x5e, 0x32, 0xeb, 0xbe, 0x52, 0x59, 0xa7, 0x3d,
  0x21, 0x17, 0x1f, 0x3e, 0xa3, 0x42, 0x97, 0x3e, 0x70, 0x49, 0x8b, 0xbd,
  0xd3, 0x70, 0x5e, 0xbc, 0x91, 0xbc, 0xfb, 0xbe, 0x5a, 0xe1, 0x51, 0x3e,
  0x7d, 0xf2, 0xce, 0xbe, 0x19, 0x6e, 0x86, 0xbd, 0x9e, 0x8c, 0x98, 0x3d,
  0x0a, 0xdf, 0xff, 0xff, 0x10, 0x00, 0x00, 0x00, 0x08, 0x00, 0x00, 0x00,
  0x1c, 0x00, 0x00, 0x00, 0x38, 0x00, 0x00, 0x00, 0x04, 0x00, 0x00, 0x00,
  0x10, 0x00, 0x00, 0x00, 0x04, 0x00, 0x00, 0x00, 0x01, 0x00, 0x00, 0x00,
  0x08, 0x00, 0x00, 0x00, 0x1a, 0x00, 0x00, 0x00, 0x73, 0x65, 0x71, 0x75,
  0x65, 0x6e, 0x74, 0x69, 0x61, 0x6c, 0x2f, 0x63, 0x6f, 0x6e, 0x76, 0x32,
  0x64, 0x5f, 0x31, 0x2f, 0x43, 0x6f, 0x6e, 0x76, 0x32, 0x44, 0x00, 0x00,
  0x04, 0xdf, 0xff, 0xff, 0xfa, 0xdf, 0xff, 0xff, 0x04, 0x00, 0x00, 0x00,
  0x80, 0x01, 0x00, 0x00, 0xcb, 0x7e, 0x31, 0x3e, 0x01, 0x46, 0x92, 0xbc,
  0x15, 0x65, 0x1f, 0x3e, 0xc0, 0x08, 0x07, 0x3e, 0x9f, 0x67, 0x60, 0x3e,
  0x41, 0xdd, 0x57, 0x3d, 0xf5, 0x2d, 0xb5, 0x3e, 0x4f, 0x7c, 0xca, 0xbe,
  0x70, 0x03, 0x66, 0xbb, 0x81, 0xb0, 0x80, 0xbd, 0xb3, 0x27, 0xa3, 0x3e,
  0xf3, 0xfa, 0x3a, 0xbe, 0x6d, 0xcc, 0x44, 0xbe, 0x6e, 0xc2, 0x07, 0x3d,
  0x40, 0x40, 0xb1, 0xbe, 0x2e, 0xb2, 0x93, 0xbd, 0xff, 0x8b, 0xc4, 0xbd,
  0x3e, 0xb5, 0x89, 0xbe, 0x03, 0xd3, 0xfa, 0xbc, 0xba, 0x07, 0x1c, 0xbe,
  0xc5, 0x73, 0xeb, 0xbc, 0x02, 0xdc, 0xa9, 0xbd, 0x0c, 0xf3, 0x3f, 0x3e,
  0xa9, 0xf6, 0xa4, 0x3d, 0xa6, 0xf4, 0xaa, 0x3e, 0x1b, 0x2f, 0xb8, 0xbb,
  0x34, 0x4a, 0x27, 0x3e, 0x44, 0x45, 0xbc, 0x3e, 0xbc, 0xed, 0x3e, 0x3d,
  0xca, 0x65, 0x94, 0x3d, 0x93, 0x6b, 0x02, 0x3f, 0xda, 0x03, 0x05, 0xbe,
  0x8b, 0x4a, 0x62, 0x3d, 0x94, 0x8a, 0x28, 0x3f, 0xe9, 0x28, 0x86, 0xbd,
  0xab, 0xed, 0x0a, 0xbe, 0xd8, 0x02, 0x2e, 0x3d, 0xbe, 0x6a, 0x84, 0x3d,
  0xe2, 0x03, 0x38, 0xbc, 0x2b, 0xe3, 0x3d, 0x3d, 0x73, 0x93, 0x5d, 0x3d,
  0x9d, 0x25, 0x7e, 0xbc, 0x33, 0x83, 0xef, 0x3c, 0xc9, 0x70, 0xc0, 0x3d,
  0x2f, 0x84, 0xc3, 0xbc, 0xda, 0xd1, 0x80, 0xbc, 0x5c, 0xaa, 0x8e, 0x3d,
  0x69, 0xd0, 0xa8, 0xbc, 0x82, 0xc6, 0x3b, 0xbf, 0x81, 0xa4, 0xa7, 0x3e,
  0x52, 0xf0, 0xfd, 0xbd, 0xd0, 0xf7, 0x80, 0x3c, 0x32, 0xa0, 0xbb, 0xbd,
  0x59, 0xd7, 0x6c, 0x3d, 0x33, 0x8e, 0x0d, 0x3f, 0x9b, 0x22, 0xa0, 0xbd,
  0x67, 0xe6, 0x7b, 0x3e, 0x03, 0x9d, 0x7e, 0x3e, 0x8b, 0x25, 0x0d, 0xbe,
  0xd0, 0x03, 0xf2, 0xbd, 0x7d, 0x75, 0x37, 0xbe, 0xee, 0xcf, 0x4e, 0x3d,
  0x53, 0xbe, 0xd3, 0x3c, 0x26, 0x26, 0x0d, 0xbe, 0xcc, 0x01, 0x42, 0x3d,
  0xa7, 0x97, 0xf2, 0x3c, 0x09, 0x3a, 0x59, 0x3d, 0x56, 0xdd, 0x9d, 0x3d,
  0x32, 0xdc, 0xe0, 0x3c, 0x3e, 0x03, 0xf5, 0x3d, 0x9d, 0x09, 0xd7, 0x3c,
  0x14, 0xb2, 0x1b, 0x3d, 0xbd, 0x95, 0x24, 0x3f, 0xcd, 0x61, 0xf5, 0xbd,
  0x0a, 0xee, 0xd6, 0x3d, 0xd2, 0xfc, 0xf5, 0x3e, 0x9b, 0x8e, 0x5c, 0x3e,
  0x96, 0xac, 0x94, 0xbe, 0x32, 0x91, 0x1a, 0x3e, 0xca, 0x37, 0x21, 0xbe,
  0xb4, 0x8d, 0x24, 0x3e, 0xd2, 0x5e, 0x2a, 0x3e, 0xd3, 0x13, 0xc0, 0x3d,
  0xb3, 0x88, 0x97, 0xbe, 0x27, 0x1d, 0x52, 0x3f, 0xec, 0xa5, 0x75, 0xbc,
  0x45, 0xfc, 0x3e, 0xbe, 0xd4, 0x09, 0x34, 0x3e, 0x8b, 0xc4, 0x3d, 0xbd,
  0xef, 0xb1, 0xf3, 0xbd, 0x33, 0xab, 0x7e, 0xbe, 0x48, 0x4e, 0x2d, 0x3c,
  0xb2, 0x0a, 0x85, 0x3e, 0x5c, 0x56, 0x3e, 0xbf, 0xe2, 0x75, 0x5e, 0x3c,
  0x8d, 0x70, 0x46, 0x3d, 0xe2, 0xe0, 0xff, 0xff, 0x10, 0x00, 0x00, 0x00,
  0x07, 0x00, 0x00, 0x00, 0x1c, 0x00, 0x00, 0x00, 0x38, 0x00, 0x00, 0x00,
  0x04, 0x00, 0x00, 0x00, 0x08, 0x00, 0x00, 0x00, 0x04, 0x00, 0x00, 0x00,
  0x03, 0x00, 0x00, 0x00, 0x01, 0x00, 0x00, 0x00, 0x18, 0x00, 0x00, 0x00,
  0x73, 0x65, 0x71, 0x75, 0x65, 0x6e, 0x74, 0x69, 0x61, 0x6c, 0x2f, 0x63,
  0x6f, 0x6e, 0x76, 0x32, 0x64, 0x2f, 0x43, 0x6f, 0x6e, 0x76, 0x32, 0x44,
  0x00, 0x00, 0x00, 0x00, 0xdc, 0xe0, 0xff, 0xff, 0xd2, 0xe1, 0xff, 0xff,
  0x04, 0x00, 0x00, 0x00, 0xc0, 0x00, 0x00, 0x00, 0xf7, 0x8c, 0x30, 0x3e,
  0x09, 0xf8, 0xe7, 0x3e, 0x89, 0x65, 0x55, 0xbe, 0x0a, 0x6d, 0xc3, 0xbe,
  0xf0, 0x73, 0xd2, 0x3d, 0xc1, 0x37, 0xbd, 0x3e, 0x56, 0x2f, 0xaa, 0x3d,
  0xc2, 0x56, 0x77, 0x3e, 0x36, 0x62, 0xab, 0xbd, 0xcb, 0xaf, 0x56, 0xbd,
  0xeb, 0xba, 0xc8, 0xbe, 0x9a, 0xa4, 0xaf, 0x3e, 0x93, 0xc6, 0xb2, 0x3d,
  0x05, 0xd3, 0x96, 0xbd, 0xa1, 0x14, 0xf5, 0x3d, 0x83, 0x8c, 0xed, 0x3c,
  0x9b, 0x77, 0xd9, 0x3d, 0xaa, 0xd1, 0x30, 0xbf, 0xfe, 0x54, 0xb3, 0xbe,
  0x41, 0xe1, 0x69, 0x3d, 0x89, 0x3a, 0x1e, 0x3e, 0xd8, 0xea, 0x7d, 0x3e,
  0x8c, 0x5f, 0x73, 0x3d, 0x98, 0x2f, 0x6a, 0x3e, 0xde, 0xc6, 0x52, 0xbd,
  0x39, 0xb2, 0x81, 0xbd, 0x27, 0x8e, 0xb9, 0xbe, 0xfc, 0x85, 0xfd, 0xbd,
  0x04, 0x01, 0xb5, 0x3e, 0x1e, 0x86, 0xc3, 0xbe, 0x6b, 0x52, 0xf9, 0x3d,
  0x4b, 0xe1, 0x8a, 0xbc, 0x73, 0x76, 0xfe, 0x3d, 0x4f, 0x4a, 0x07, 0xbe,
  0xd4, 0x24, 0x56, 0xbe, 0x76, 0xfd, 0x6e, 0xbe, 0xe6, 0x45, 0x33, 0x3e,
  0x66, 0x5c, 0x9f, 0x3e, 0x9d, 0x36, 0xf5, 0x3d, 0xb6, 0xd5, 0x8b, 0x3e,
  0x38, 0x6e, 0xc4, 0xbd, 0x4a, 0xda, 0xb7, 0xbc, 0x04, 0x57, 0xce, 0xbe,
  0x77, 0x15, 0xc0, 0x3e, 0xa5, 0x2a, 0xa2, 0x3e, 0x08, 0xc9, 0x13, 0xbe,
  0x5b, 0xd5, 0xa1, 0x3d, 0xc8, 0x84, 0x10, 0x3d, 0xfa, 0xe1, 0xff, 0xff,
  0x10, 0x00, 0x00, 0x00, 0x06, 0x00, 0x00, 0x00, 0x14, 0x00, 0x00, 0x00,
  0x30, 0x00, 0x00, 0x00, 0x02, 0x00, 0x00, 0x00, 0x03, 0x00, 0x00, 0x00,
  0x10, 0x00, 0x00, 0x00, 0x19, 0x00, 0x00, 0x00, 0x73, 0x65, 0x71, 0x75,
  0x65, 0x6e, 0x74, 0x69, 0x61, 0x6c, 0x2f, 0x64, 0x65, 0x6e, 0x73, 0x65,
  0x5f, 0x31, 0x2f, 0x4d, 0x61, 0x74, 0x4d, 0x75, 0x6c, 0x00, 0x00, 0x00,
  0xec, 0xe1, 0xff, 0xff, 0xe2, 0xe2, 0xff, 0xff, 0x04, 0x00, 0x00, 0x00,
  0x00, 0x1c, 0x00, 0x00, 0x71, 0x0c, 0x92, 0x3c, 0xde, 0x1b, 0xf3, 0x3d,
  0x03, 0xb9, 0x50, 0x3c, 0x36, 0x64, 0x1a, 0x3e, 0xc9, 0x6c, 0x25, 0xbe,
  0x16, 0x34, 0x34, 0xbf, 0xb1, 0xbf, 0xd4, 0xbe, 0x7f, 0x0d, 0x39, 0xbe,
  0x47, 0xc4, 0xd6, 0xbd, 0xb3, 0xde, 0x98, 0x3d, 0x94, 0x77, 0x11, 0xbe,
  0xec, 0xbd, 0x44, 0xbd, 0x7e, 0x5e, 0xc7, 0x3d, 0x17, 0x94, 0xcb, 0xbe,
  0x46, 0x32, 0xc1, 0xbd, 0x7f, 0x76, 0xb2, 0xbe, 0x57, 0xcc, 0x3a, 0x3e,
  0x61, 0xe8, 0x34, 0x3e, 0xa9, 0x44, 0x34, 0xbe, 0x71, 0x77, 0x7a, 0xbd,
  0x3c, 0x62, 0x38, 0xbe, 0xd1, 0x96, 0x80, 0xbe, 0x67, 0xaa, 0x0a, 0xbd,
  0xfd, 0xaa, 0x12, 0x3e, 0x4d, 0xcd, 0xeb, 0xbc, 0x35, 0xe4, 0xfa, 0xbe,
  0x14, 0x6c, 0x5e, 0xbe, 0xc3, 0x95, 0x6b, 0xbe, 0xea, 0x5b, 0x76, 0x3e,
  0x8f, 0x45, 0x8f, 0xbe, 0x11, 0xd3, 0xb1, 0xbd, 0x66, 0xb1, 0xa1, 0xbe,
  0x9d, 0xc4, 0x44, 0xbe, 0x15, 0x1d, 0x89, 0x3d, 0xe4, 0x6a, 0x68, 0xbe,
  0x3e, 0x2e, 0x0d, 0x3d, 0xfc, 0x24, 0xd8, 0xbc, 0x77, 0x36, 0x07, 0xbd,
  0x12, 0x8f, 0x84, 0x3d, 0x1a, 0xb0, 0xce, 0xbc, 0x3b, 0x7d, 0x0e, 0xbc,
  0xcb, 0x69, 0x1f, 0xbf, 0xb4, 0x51, 0xe2, 0x3d, 0x16, 0x15, 0x50, 0xbe,
  0xb2, 0x3e, 0x7c, 0x3e, 0x75, 0x0c, 0xa3, 0xbe, 0x9a, 0x6a, 0x0a, 0xbe,
  0x14, 0x17, 0x02, 0xbf, 0x95, 0x09, 0x20, 0xbe, 0x14, 0x03, 0x1f, 0x3e,
  0xe0, 0x01, 0x62, 0xbe, 0x62, 0x87, 0x12, 0x3e, 0xd2, 0x16, 0x05, 0x3e,
  0xb3, 0x78, 0x9c, 0x39, 0x97, 0xfb, 0x96, 0x3d, 0x23, 0xf2, 0x84, 0x3b,
  0x48, 0x02, 0x16, 0x3e, 0x27, 0xdc, 0x34, 0xbf, 0x28, 0xf5, 0x4b, 0xbd,
  0x6a, 0x92, 0x2b, 0xbe, 0x26, 0x8f, 0x87, 0x3e, 0xdc, 0x4d, 0xd2, 0xbd,
  0x0a, 0x66, 0x67, 0xbc, 0x87, 0xe5, 0x70, 0xbe, 0x7c, 0xed, 0x97, 0x3d,
  0x23, 0x81, 0x84, 0x3b, 0x89, 0x14, 0x64, 0xbd, 0xf0, 0x82, 0x13, 0x3e,
  0xf3, 0x9c, 0xc5, 0x3c, 0xdc, 0x4b, 0xd9, 0xbc, 0x42, 0x3d, 0xde, 0x3d,
  0x4b, 0xc2, 0x57, 0xbc, 0x92, 0xa5, 0xdf, 0x3d, 0xe2, 0x68, 0x23, 0xbf,
  0x72, 0x52, 0x87, 0x3b, 0x54, 0x00, 0xec, 0xbd, 0x55, 0xc0, 0x17, 0x3e,
  0x0e, 0x1c, 0x1c, 0xbe, 0x84, 0xc5, 0xa6, 0xbd, 0x40, 0x9c, 0xbd, 0xbe,
  0xb1, 0xce, 0x28, 0x3e, 0x16, 0xc6, 0x9c, 0x3d, 0x93, 0x1b, 0x25, 0xbe,
  0x99, 0xc4, 0xcd, 0x3d, 0xd2, 0x85, 0xb5, 0xbd, 0xf2, 0xb7, 0x31, 0x3b,
  0x9b, 0x24, 0x69, 0xbc, 0xce, 0x40, 0x80, 0xbd, 0x88, 0xe1, 0x74, 0x3d,
  0xf3, 0xa6, 0xfb, 0xbe, 0xbf, 0x82, 0xcc, 0x3d, 0x92, 0x7c, 0x7d, 0xbd,
  0xdf, 0xc6, 0x11, 0x3e, 0x39, 0x87, 0x18, 0xbe, 0xf8, 0x11, 0x18, 0x3c,
  0xbf, 0xce, 0xe8, 0xbe, 0x3f, 0x21, 0x73, 0x3e, 0x7c, 0x17, 0x00, 0x3d,
  0x51, 0xb6, 0x82, 0x3d, 0x3e, 0x55, 0x86, 0x3d, 0x3f, 0x51, 0x14, 0x3d,
  0xe1, 0x5e, 0xfc, 0x3c, 0x28, 0x33, 0x7d, 0xbc, 0xf0, 0xe0, 0x5c, 0xbc,
  0x28, 0x12, 0xdd, 0xbc, 0xcd, 0x85, 0xe8, 0x3c, 0xac, 0x39, 0xaf, 0x3d,
  0x46, 0xfd, 0x4a, 0xbe, 0xc0, 0x49, 0x04, 0x3e, 0xd4, 0xaf, 0x6a, 0xbc,
  0x3f, 0x55, 0x3a, 0x3d, 0x30, 0x75, 0x63, 0x3d, 0xfd, 0x26, 0x08, 0x3e,
  0x10, 0xba, 0xad, 0xbd, 0x1c, 0xf3, 0x34, 0x3e, 0xf2, 0xae, 0xc7, 0xbd,
  0x83, 0xfb, 0xa3, 0xbd, 0x33, 0x0e, 0x12, 0xbe, 0xa5, 0x92, 0x55, 0x3e,
  0x9c, 0xf2, 0x2e, 0xbd, 0x40, 0x29, 0x2d, 0xbe, 0x52, 0xe4, 0x12, 0xbe,
  0x0a, 0x94, 0x9f, 0xbe, 0xfa, 0xf8, 0xbe, 0xbe, 0x51, 0xb8, 0xc4, 0xbe,
  0x8c, 0x83, 0x8b, 0x39, 0xa7, 0x05, 0x9f, 0x3d, 0x59, 0xb7, 0x93, 0xbe,
  0xdf, 0x89, 0x84, 0x3d, 0x83, 0x46, 0x97, 0xbe, 0x6e, 0x7b, 0x51, 0x3e,
  0xe5, 0x20, 0x82, 0xbe, 0x2e, 0xff, 0x3e, 0xbd, 0x18, 0x39, 0xae, 0xbe,
  0x0a, 0x7a, 0xc2, 0x3c, 0x72, 0xa4, 0xd0, 0x3e, 0xd6, 0x30, 0x59, 0xbd,
  0xb7, 0x8e, 0x66, 0xbe, 0x07, 0x4c, 0xdd, 0xbe, 0x98, 0x15, 0xa6, 0xbe,
  0xb6, 0x49, 0x54, 0xbe, 0xe4, 0x7a, 0x62, 0xbe, 0x8f, 0x7a, 0xa5, 0x3c,
  0x97, 0x64, 0x38, 0xbc, 0xc7, 0xb4, 0xf4, 0xbd, 0xcb, 0xa6, 0x9f, 0xbe,
  0x0d, 0x2c, 0x33, 0x3d, 0xc3, 0xcb, 0x75, 0xbe, 0xd6, 0xea, 0xcf, 0x3d,
  0xe7, 0x52, 0x20, 0xbe, 0x11, 0x94, 0xcc, 0x3d, 0xf4, 0x24, 0x9e, 0x3e,
  0xf3, 0x58, 0x99, 0xbe, 0xed, 0x4c, 0x0c, 0x3d, 0x6c, 0x99, 0xbe, 0xbe,
  0xa1, 0xfa, 0x48, 0xbe, 0x3f, 0xac, 0xd7, 0x3c, 0xfe, 0x56, 0x4d, 0xbe,
  0xfd, 0xe9, 0xf2, 0x3c, 0xc4, 0x1b, 0x2b, 0x3e, 0x47, 0xe7, 0x7d, 0xbd,
  0x1e, 0x2b, 0x83, 0xbe, 0xd7, 0xc5, 0xa6, 0x3d, 0x74, 0x13, 0xf1, 0xbd,
  0xb5, 0x6e, 0x6c, 0xbe, 0x98, 0xf9, 0x0c, 0xbe, 0x94, 0x51, 0x83, 0x3c,
  0xd8, 0xee, 0x0d, 0x3f, 0x90, 0x4c, 0x1f, 0xbe, 0x30, 0xbb, 0x79, 0xbe,
  0x89, 0x8f, 0x91, 0xbd, 0x8b, 0x1c, 0xa8, 0xbe, 0x22, 0xd6, 0x55, 0xbd,
  0x59, 0xf6, 0xef, 0x3c, 0x60, 0xf4, 0x43, 0xbd, 0x7e, 0x58, 0xf7, 0xbd,
  0xf4, 0x13, 0x14, 0xbe, 0xfa, 0xb1, 0x77, 0xbe, 0xcc, 0x55, 0x14, 0x3e,
  0x29, 0x62, 0x48, 0xbe, 0x01, 0x54, 0x08, 0xbe, 0x1d, 0x70, 0xb5, 0xbd,
  0x19, 0x7b, 0x2c, 0x3d, 0x5f, 0x8e, 0x3d, 0x3e, 0x3e, 0xbb, 0x18, 0xbe,
  0x2b, 0x0c, 0xdf, 0xbb, 0xb9, 0xc2, 0xa0, 0xbe, 0x7e, 0x26, 0x3b, 0xbb,
  0x78, 0xba, 0x8a, 0xbe, 0x25, 0xf8, 0x7a, 0x3d, 0xb8, 0xa6, 0x81, 0xbd,
  0x0a, 0x2b, 0x72, 0x3d, 0xb2, 0xbe, 0x8a, 0xbd, 0xc4, 0x8e, 0x61, 0xbe,
  0xd8, 0x8d, 0x0a, 0x3e, 0x6c, 0x8f, 0x25, 0xbe, 0x6e, 0xef, 0x93, 0x3c,
  0x10, 0x3d, 0x34, 0xbe, 0x4c, 0x65, 0x9a, 0xbc, 0x0b, 0x68, 0x0b, 0xbe,
  0x8b, 0xa7, 0x28, 0xbe, 0xb1, 0x7f, 0xd2, 0x3b, 0x8b, 0x13, 0x9c, 0xbe,
  0xc3, 0xa6, 0xb3, 0xbe, 0xc5, 0xd7, 0x06, 0xbe, 0xb9, 0x0c, 0x2e, 0xbe,
  0x89, 0x62, 0x24, 0xbd, 0x29, 0x96, 0x95, 0x3d, 0x12, 0x12, 0x0e, 0xbe,
  0xb9, 0x2e, 0xd6, 0xbe, 0xe0, 0xc1, 0x33, 0x3e, 0x48, 0x35, 0xe5, 0xbe,
  0xf9, 0xba, 0x7b, 0xbe, 0x26, 0xe4, 0x9f, 0xbe, 0x59, 0x14, 0x9e, 0xbd,
  0x6e, 0x78, 0x8e, 0x3c, 0x0a, 0x25, 0xe9, 0xbe, 0x11, 0xec, 0x8f, 0xbd,
  0xac, 0x2c, 0xa2, 0xbd, 0x14, 0xc1, 0x88, 0xbe, 0x46, 0x36, 0xc0, 0xbd,
  0x5b, 0x73, 0x05, 0xbe, 0xbb, 0xe1, 0x4f, 0x3e, 0x6d, 0xea, 0xaa, 0xbe,
  0x46, 0x56, 0x14, 0xbe, 0x61, 0x85, 0x3e, 0x3d, 0x81, 0x3c, 0x8e, 0x3e,
  0xd4, 0x2b, 0x90, 0xbd, 0xa1, 0x04, 0xd0, 0xbe, 0xc1, 0x85, 0xd1, 0xbd,
  0xbb, 0x6c, 0x55, 0x3e, 0xfd, 0xcd, 0x0e, 0x3e, 0xd0, 0xc4, 0x9e, 0x3c,
  0x73, 0xf6, 0x2f, 0x3d, 0x42, 0xdd, 0x74, 0x3e, 0x15, 0x4f, 0x47, 0xbd,
  0xc0, 0xae, 0x3d, 0xbe, 0xab, 0xfd, 0x94, 0xbe, 0x6b, 0x1a, 0x8b, 0x3e,
  0xb2, 0x0a, 0x4d, 0x3d, 0xf5, 0x9f, 0x98, 0xbe, 0xbc, 0xf3, 0x95, 0xbe,
  0x9d, 0x1a, 0x5b, 0xbd, 0xe5, 0x0d, 0xa3, 0x3d, 0xfb, 0x63, 0x55, 0xbe,
  0x06, 0x4c, 0xba, 0xbd, 0x87, 0x6b, 0x13, 0x3e, 0x3f, 0xbf, 0x44, 0x3d,
  0x5d, 0x20, 0xe4, 0x3d, 0xad, 0x5b, 0x5a, 0x3d, 0xd3, 0x65, 0x84, 0x3e,
  0x1a, 0x2a, 0x85, 0xbd, 0x2a, 0x2f, 0x75, 0x3d, 0xb8, 0x1f, 0xa3, 0xbe,
  0x7b, 0x60, 0x1f, 0x3e, 0x00, 0xe2, 0xdf, 0xbd, 0xd4, 0x59, 0x57, 0xbe,
  0x6f, 0xd5, 0xc7, 0x3c, 0x91, 0x95, 0xad, 0xbd, 0xc3, 0x66, 0x25, 0x3c,
  0x1a, 0xa2, 0x9b, 0xbd, 0x8e, 0x9a, 0xc0, 0x3d, 0xf1, 0x48, 0x47, 0x3d,
  0x54, 0xaf, 0xf5, 0xbc, 0x91, 0xbd, 0x9e, 0xbd, 0x53, 0x17, 0x0c, 0x3e,
  0x28, 0x9e, 0xb1, 0x3e, 0x16, 0xd3, 0x07, 0x3e, 0x7f, 0xc9, 0xdd, 0xbc,
  0xf0, 0xcd, 0x0d, 0xbe, 0xae, 0xc4, 0xd4, 0x3c, 0x55, 0x47, 0xf5, 0xbd,
  0x68, 0xa8, 0xf5, 0xbd, 0xa2, 0x64, 0x67, 0xbe, 0x64, 0xcf, 0xa9, 0x3d,
  0x54, 0xd5, 0xac, 0x3d, 0xe4, 0x5c, 0x25, 0xbe, 0x46, 0xe9, 0xa4, 0xbd,
  0xea, 0x4c, 0xdb, 0x3c, 0x23, 0xbb, 0x5d, 0xbe, 0xa7, 0x24, 0xc4, 0xbd,
  0xef, 0xc7, 0x8f, 0x3d, 0xbb, 0xf2, 0xb1, 0x3c, 0x8c, 0xb5, 0xc7, 0x3c,
  0x34, 0x60, 0xa1, 0x3d, 0x99, 0x2e, 0xd2, 0xbd, 0xa3, 0xb0, 0x0d, 0xbd,
  0xec, 0x55, 0xf2, 0xbd, 0xf5, 0x34, 0x61, 0xbe, 0xd9, 0xd7, 0xc3, 0x3d,
  0x5e, 0xfb, 0x70, 0xbd, 0x0c, 0x17, 0x09, 0xbe, 0xe0, 0x6a, 0x95, 0xbd,
  0x17, 0x60, 0x08, 0x3d, 0x52, 0x3a, 0x77, 0xbe, 0xa6, 0x0e, 0x0d, 0xbe,
  0x42, 0x07, 0xe0, 0x3d, 0xc2, 0x46, 0x90, 0x3e, 0x2e, 0x89, 0x82, 0x3b,
  0x9b, 0xb6, 0x22, 0x3d, 0x31, 0x61, 0x12, 0xbe, 0x7d, 0xc4, 0x19, 0xbe,
  0x27, 0x86, 0xd5, 0xbd, 0x35, 0xdd, 0x64, 0xbc, 0xac, 0x3a, 0x48, 0xbd,
  0x75, 0x49, 0x9f, 0xbe, 0xb7, 0x66, 0x36, 0x3c, 0x02, 0xe3, 0x34, 0xbe,
  0xc5, 0x34, 0x20, 0xbe, 0xc6, 0x4b, 0x84, 0x3e, 0x57, 0x3b, 0x16, 0xbe,
  0xe1, 0x95, 0x42, 0xbe, 0xb5, 0x31, 0xaf, 0xbd, 0xa1, 0x81, 0x02, 0x3e,
  0x5b, 0xe5, 0x2f, 0xbe, 0x50, 0xa9, 0x1a, 0xbe, 0x6d, 0xab, 0x78, 0xbe,
  0x79, 0x3f, 0x8a, 0xbe, 0x65, 0xbe, 0x21, 0x3d, 0x3b, 0x72, 0xbf, 0x3e,
  0x5c, 0xb0, 0x8a, 0x3c, 0x60, 0x31, 0x6c, 0xbd, 0xfa, 0x5c, 0xcf, 0x3d,
  0x72, 0x3a, 0xa9, 0xbc, 0xd4, 0x9b, 0x04, 0xbd, 0xe2, 0x29, 0x74, 0xbd,
  0xa7, 0x8d, 0x0d, 0xbc, 0x8a, 0xd2, 0xfb, 0x3c, 0xd2, 0xbd, 0x62, 0x3e,
  0x55, 0x68, 0xd7, 0x3b, 0x46, 0x16, 0xf1, 0x3c, 0x76, 0x8a, 0xb0, 0xbd,
  0xc5, 0xa6, 0x89, 0xbe, 0xc1, 0xd3, 0xa4, 0xbd, 0x90, 0xf3, 0x8b, 0x3d,
  0x5e, 0xc3, 0x37, 0x3d, 0x03, 0x0f, 0x10, 0x3e, 0x24, 0x12, 0x8e, 0xbe,
  0x9a, 0xa4, 0x74, 0xbd, 0x81, 0xc3, 0xc5, 0xbd, 0x81, 0xad, 0x20, 0xbe,
  0xc0, 0x95, 0xba, 0x3b, 0x3d, 0x6e, 0x98, 0xbe, 0xcd, 0x32, 0x47, 0xbb,
  0x4a, 0x7c, 0xa1, 0xbd, 0x7b, 0xf8, 0x14, 0xbe, 0x1d, 0x80, 0xcb, 0x3c,
  0x14, 0x14, 0x68, 0xbe, 0x56, 0x60, 0x17, 0xbe, 0x98, 0xa3, 0x10, 0x3e,
  0x30, 0x35, 0xc3, 0xbb, 0x2f, 0xe6, 0x2b, 0x3d, 0x25, 0xd4, 0x0a, 0x3e,
  0x86, 0x97, 0xc6, 0xbd, 0x75, 0x91, 0x2c, 0xbe, 0x94, 0x51, 0x84, 0xbe,
  0x9a, 0x62, 0xb8, 0xbd, 0x16, 0x12, 0x36, 0xbd, 0x30, 0x9e, 0xc3, 0xbd,
  0x52, 0x4b, 0x05, 0x3c, 0xb1, 0x2f, 0xe5, 0x39, 0x13, 0xd1, 0xa0, 0xbd,
  0x59, 0xa0, 0xd9, 0x3d, 0xe3, 0x9b, 0x44, 0x3d, 0x0a, 0x89, 0xc5, 0xbd,
  0x23, 0xb1, 0x0a, 0xbe, 0x8e, 0x39, 0x16, 0xbe, 0xec, 0x2d, 0x8f, 0x3d,
  0x0b, 0x94, 0x18, 0x3e, 0x88, 0x8d, 0x9f, 0xbd, 0xca, 0xb4, 0x4e, 0xbd,
  0xeb, 0x04, 0xf3, 0x3d, 0x67, 0x23, 0xa0, 0xbd, 0xb7, 0xdc, 0x9d, 0x3d,
  0x8f, 0xa6, 0x3a, 0xbe, 0xd4, 0x72, 0xd1, 0x3d, 0xe2, 0x23, 0x23, 0xbe,
  0x50, 0x67, 0x08, 0xbc, 0xdb, 0x7b, 0xf4, 0x3c, 0xc0, 0x84, 0x9b, 0xbe,
  0x27, 0x47, 0x81, 0xbe, 0x1f, 0xaa, 0x3c, 0xbe, 0x82, 0x0b, 0xa0, 0xbe,
  0x77, 0x20, 0xc2, 0xbd, 0x02, 0x4a, 0x12, 0xbe, 0x78, 0xe2, 0x34, 0xbe,
  0xc3, 0x35, 0x50, 0x3e, 0xfb, 0x67, 0x4e, 0x3d, 0xa9, 0x4a, 0x94, 0xbd,
  0xec, 0x45, 0xaf, 0xbd, 0x0c, 0x0a, 0x90, 0xbe, 0xc6, 0x8d, 0x4b, 0xbc,
  0x2f, 0x60, 0x1a, 0xbe, 0x2f, 0x9c, 0x5c, 0xbe, 0x0e, 0xdf, 0x0b, 0xbe,
  0x14, 0xcc, 0x98, 0x3d, 0x15, 0x2c, 0xae, 0xbd, 0x37, 0x70, 0xed, 0x3d,
  0x89, 0x9d, 0xaa, 0xbd, 0x9f, 0xa9, 0x44, 0xbc, 0xd2, 0x39, 0x7e, 0xbd,
  0x38, 0xf0, 0x0a, 0xbe, 0xc9, 0xd9, 0x9d, 0x3d, 0x6d, 0xce, 0x0a, 0xbc,
  0x78, 0x13, 0x01, 0xbe, 0x70, 0x0d, 0x60, 0xbe, 0x86, 0x6c, 0x46, 0xbe,
  0x4f, 0xef, 0x3b, 0x3d, 0x00, 0x41, 0x4e, 0xbd, 0xae, 0x2f, 0x9d, 0x3d,
  0x29, 0xb4, 0x41, 0xbd, 0x7d, 0xe1, 0x06, 0xbe, 0xa6, 0xe2, 0xea, 0xbd,
  0xd8, 0x6a, 0x37, 0xbd, 0x50, 0x10, 0x44, 0xbd, 0xeb, 0x53, 0xd8, 0x3d,
  0x29, 0x27, 0xb3, 0x3b, 0xc6, 0x5a, 0x0b, 0xbe, 0x05, 0xcf, 0xdf, 0xbc,
  0x24, 0x5d, 0xcf, 0x3d, 0x16, 0x74, 0x39, 0x3d, 0xe8, 0xa2, 0x30, 0xbd,
  0x8a, 0x96, 0x5a, 0xbe, 0xe3, 0x59, 0x31, 0xbe, 0xba, 0x8d, 0x7d, 0xbe,
  0xcb, 0xcd, 0x91, 0xbd, 0xe0, 0x3a, 0x83, 0xbe, 0xb4, 0x5f, 0x91, 0xbe,
  0x88, 0x76, 0xab, 0xbd, 0x4e, 0xa2, 0x93, 0x3d, 0xff, 0x68, 0x6f, 0xbe,
  0xcc, 0x4b, 0x1d, 0xbe, 0xe6, 0x40, 0x49, 0xbe, 0x88, 0xd1, 0x76, 0xbe,
  0xb9, 0xc7, 0x90, 0xbd, 0xad, 0xa8, 0x67, 0xbe, 0xdb, 0xda, 0x4f, 0xbe,
  0x20, 0x2d, 0x7f, 0xbe, 0xf9, 0x76, 0x48, 0x3c, 0xb5, 0x80, 0xdb, 0xbd,
  0xb2, 0x56, 0x2f, 0xbe, 0xb0, 0x44, 0x47, 0xbe, 0x9d, 0xe3, 0x54, 0x3e,
  0x51, 0xe9, 0x32, 0xbe, 0x51, 0x4c, 0x3b, 0xbe, 0xc9, 0xe3, 0xad, 0xbc,
  0xf8, 0x32, 0x72, 0x3c, 0x0c, 0x48, 0xe7, 0x3d, 0xc7, 0xae, 0xc4, 0xbd,
  0x8c, 0x9d, 0x0c, 0xbe, 0xaf, 0x39, 0x3a, 0x3e, 0x7b, 0x60, 0x99, 0xbd,
  0xdb, 0xc3, 0xad, 0xbd, 0x63, 0x84, 0xdf, 0x3d, 0x58, 0xfd, 0x0d, 0x3e,
  0x6d, 0xbd, 0x88, 0xbc, 0x43, 0x1f, 0x4a, 0x3d, 0x04, 0x74, 0xc5, 0xbd,
  0xc0, 0xca, 0x5b, 0x3e, 0xcc, 0x64, 0x89, 0xbe, 0x01, 0x65, 0x3e, 0xbe,
  0xa6, 0xc1, 0x00, 0xbc, 0xfe, 0x5d, 0x45, 0xbe, 0x84, 0xe0, 0x5b, 0xbe,
  0x80, 0x2d, 0xf7, 0xbc, 0xaa, 0x73, 0xaa, 0xbe, 0xb7, 0x81, 0x96, 0xbd,
  0x13, 0x92, 0x1a, 0xbe, 0x01, 0x2a, 0x26, 0xbe, 0xe9, 0x84, 0x0d, 0x3e,
  0xc9, 0x64, 0x08, 0x3d, 0x47, 0x6b, 0x7b, 0xbe, 0x8d, 0x6c, 0x5e, 0xbd,
  0x1d, 0x06, 0x92, 0xba, 0xc8, 0x57, 0x7f, 0x3e, 0x68, 0xde, 0xab, 0xbd,
  0x00, 0x0d, 0x77, 0xbd, 0x58, 0x50, 0xe1, 0xbd, 0x01, 0xbf, 0x03, 0x3e,
  0x0c, 0xce, 0xb9, 0xbc, 0x80, 0xc0, 0x26, 0x3e, 0xea, 0x9b, 0x83, 0xbe,
  0x22, 0xed, 0x45, 0x3b, 0xa6, 0x68, 0x5d, 0x3d, 0x21, 0xd8, 0xc0, 0xbd,
  0x79, 0x5d, 0x96, 0xbd, 0x13, 0xab, 0x5b, 0x3e, 0x93, 0xa5, 0x14, 0xbe,
  0x89, 0xb6, 0x44, 0x3e, 0x86, 0x38, 0xb6, 0xbd, 0x76, 0xd5, 0x2e, 0x3c,
  0x88, 0x05, 0x30, 0x3d, 0x2e, 0xb4, 0x34, 0x3e, 0x81, 0xd4, 0x4a, 0x3d,
  0xc2, 0xd5, 0x2f, 0xbc, 0xe3, 0x50, 0x02, 0xbe, 0x2a, 0x22, 0x34, 0x3e,
  0x7b, 0xa7, 0xb9, 0xbd, 0x3d, 0x6a, 0x1f, 0xbe, 0x82, 0xe6, 0x8a, 0xbd,
  0x1a, 0x2e, 0x65, 0xbe, 0xf6, 0xa4, 0xed, 0xbc, 0x09, 0xed, 0xfd, 0xbd,
  0x04, 0x38, 0x43, 0xbd, 0xf8, 0x7a, 0x80, 0xbe, 0x70, 0x6d, 0x54, 0xbd,
  0x69, 0xcf, 0xd3, 0x3c, 0x7a, 0x75, 0x14, 0xbe, 0x39, 0xb4, 0x48, 0xbe,
  0x07, 0xd8, 0x35, 0xbe, 0x9c, 0xea, 0x2b, 0x3d, 0x73, 0xa0, 0xeb, 0xbd,
  0x62, 0xbc, 0x4a, 0x3e, 0x14, 0x4c, 0xf6, 0xbd, 0xee, 0x3b, 0xce, 0xbd,
  0x57, 0x38, 0x9d, 0x3d, 0x41, 0x66, 0xc9, 0xbd, 0xf8, 0xb4, 0xe0, 0xbd,
  0xe5, 0x93, 0x29, 0xbe, 0xdd, 0x38, 0xb8, 0xbd, 0xec, 0x08, 0xc3, 0xbd,
  0xf4, 0x27, 0x59, 0xbd, 0x6a, 0x5c, 0xe8, 0x3b, 0x78, 0x31, 0xd5, 0xbd,
  0x03, 0xf4, 0x88, 0xbe, 0x95, 0xc4, 0xea, 0xbc, 0x2e, 0x84, 0x4e, 0xbd,
  0x33, 0x03, 0xb1, 0xbd, 0xba, 0xfb, 0xee, 0x3c, 0x07, 0xb4, 0x8f, 0x3c,
  0x16, 0xdb, 0x87, 0xbc, 0x34, 0x09, 0x19, 0x3d, 0xb8, 0xb9, 0x22, 0xbe,
  0xd6, 0x8d, 0xfc, 0x3d, 0xab, 0x08, 0x59, 0x3a, 0x68, 0xdf, 0x87, 0xbe,
  0xbd, 0x96, 0x23, 0x3e, 0x4e, 0xf8, 0x59, 0xbe, 0x59, 0x75, 0xe6, 0x3d,
  0x96, 0xe0, 0xc0, 0xbc, 0x1a, 0x2e, 0x6d, 0xbe, 0xd6, 0xd3, 0x86, 0xbd,
  0x94, 0x49, 0xb1, 0xbd, 0xd3, 0x03, 0x53, 0xbe, 0x99, 0xd0, 0x62, 0x3c,
  0xe0, 0x49, 0x8c, 0xbe, 0x1f, 0x68, 0x01, 0xbe, 0x92, 0x5e, 0x1c, 0xbd,
  0xe7, 0xe7, 0x80, 0xbd, 0xae, 0xc7, 0x42, 0xbe, 0x12, 0x9f, 0x43, 0xbe,
  0x62, 0x07, 0x48, 0xbe, 0x48, 0x81, 0x7e, 0xbe, 0x08, 0xdc, 0x9c, 0x3d,
  0xf6, 0x20, 0xda, 0x3c, 0x79, 0x1a, 0xcc, 0xbe, 0x25, 0xb9, 0xba, 0xbd,
  0xc1, 0x6f, 0x21, 0xbe, 0xee, 0x17, 0x2d, 0x3d, 0xed, 0x4a, 0x24, 0xbd,
  0xcb, 0xb2, 0x35, 0x3e, 0x36, 0x60, 0x87, 0x3e, 0xab, 0x17, 0x41, 0xbd,
  0x7a, 0x85, 0x00, 0x3e, 0x60, 0x66, 0xe7, 0x3c, 0x2e, 0xf7, 0x0f, 0xbf,
  0xa4, 0xb8, 0xb0, 0xbe, 0xdf, 0xcd, 0x15, 0xbe, 0x40, 0x0b, 0x62, 0xbe,
  0xe1, 0xa6, 0x1d, 0x3b, 0xc5, 0x1f, 0xbe, 0xbe, 0xca, 0x4e, 0xd4, 0xbd,
  0xb1, 0x52, 0x0f, 0x3d, 0x7a, 0x30, 0x92, 0xbe, 0xf5, 0x2b, 0xbe, 0xbe,
  0xfa, 0xe9, 0xbc, 0xbe, 0xa1, 0x56, 0x91, 0x3e, 0x4f, 0xf1, 0xe0, 0x3d,
  0xb9, 0x14, 0x95, 0xbd, 0x4c, 0x93, 0xa8, 0x3d, 0xc3, 0xa8, 0x39, 0xbd,
  0x40, 0x19, 0xf2, 0xbd, 0xe6, 0x27, 0x42, 0xbd, 0x88, 0x8e, 0xfe, 0xbc,
  0xd6, 0xb7, 0x32, 0xbe, 0xe8, 0xf1, 0xa7, 0xbe, 0x32, 0xef, 0xcd, 0xbd,
  0x8b, 0x78, 0x94, 0xbe, 0xbb, 0x81, 0x78, 0x3e, 0xb0, 0xc5, 0x62, 0xbe,
  0xc8, 0xca, 0xa5, 0xbd, 0x26, 0x17, 0xa1, 0xbe, 0xd3, 0x74, 0xd5, 0x3d,
  0xdc, 0xb8, 0xd3, 0xbd, 0x91, 0xca, 0x18, 0xbd, 0x9c, 0xf8, 0x4a, 0x3e,
  0x66, 0xcd, 0x10, 0x3e, 0x08, 0x84, 0x4a, 0xbd, 0x2b, 0xbf, 0x59, 0xbd,
  0x29, 0x24, 0x06, 0xbe, 0x76, 0x87, 0x4e, 0x3d, 0x16, 0x9b, 0xfe, 0xbe,
  0xe6, 0xce, 0x1c, 0x3c, 0x30, 0x12, 0x82, 0xbe, 0x03, 0x13, 0x40, 0x3e,
  0x6c, 0x77, 0xa5, 0xbe, 0x31, 0xf7, 0x91, 0xbe, 0x61, 0xce, 0xdc, 0xbe,
  0xd9, 0x46, 0x62, 0xbd, 0x61, 0x3c, 0x3d, 0x3d, 0x73, 0x68, 0x53, 0x39,
  0x13, 0x3e, 0x55, 0x3e, 0x6c, 0xcb, 0x16, 0x3e, 0xcb, 0xc9, 0xba, 0xbd,
  0x80, 0xf5, 0x48, 0x3c, 0xbd, 0xf2, 0x7a, 0xbe, 0x41, 0x87, 0x9f, 0x3d,
  0x05, 0xe3, 0xbe, 0xbe, 0xf4, 0x71, 0x11, 0x3e, 0xfb, 0xb3, 0x80, 0xbe,
  0xf4, 0x07, 0x2e, 0x3e, 0xf3, 0x0f, 0x84, 0xbd, 0xb8, 0xae, 0x19, 0xbe,
  0x09, 0x1d, 0xc6, 0xbe, 0x92, 0xf5, 0xa3, 0xbb, 0xa8, 0xd1, 0xae, 0x3d,
  0xfa, 0x95, 0x8f, 0x3c, 0x16, 0xd8, 0x30, 0x3e, 0x6a, 0x55, 0x68, 0x3d,
  0xac, 0xb7, 0xad, 0x3b, 0x7f, 0x0f, 0xe4, 0xbb, 0xd1, 0x8f, 0x3d, 0x3d,
  0x5a, 0x11, 0xb6, 0xbc, 0x11, 0x6e, 0x99, 0xbe, 0x5f, 0x5b, 0xae, 0xbd,
  0x30, 0x3a, 0x20, 0x3c, 0xdf, 0x67, 0xa3, 0x3c, 0xed, 0xb3, 0x39, 0xbe,
  0x99, 0x5d, 0xfc, 0xbd, 0xd6, 0x40, 0xd5, 0xbe, 0xf6, 0x2e, 0x8e, 0x3e,
  0x2e, 0x38, 0x0f, 0x3d, 0x5c, 0xf7, 0x22, 0xbe, 0x11, 0x46, 0x54, 0x3e,
  0xc2, 0x95, 0xf4, 0xbd, 0x39, 0x80, 0x63, 0xbd, 0x88, 0x5c, 0x5d, 0xbd,
  0x4f, 0x58, 0xd4, 0x3c, 0xbf, 0x64, 0x4f, 0xbe, 0x85, 0x61, 0xd1, 0xbe,
  0xe1, 0xc2, 0x99, 0x3e, 0x48, 0x0b, 0xe6, 0xbc, 0x6c, 0x2c, 0x75, 0x3e,
  0x1d, 0x5f, 0x05, 0xbe, 0x02, 0x43, 0x10, 0xbe, 0x39, 0xd9, 0xef, 0xbe,
  0x13, 0x14, 0x9f, 0x3e, 0xd5, 0xbf, 0xae, 0xbd, 0xa3, 0x85, 0x6e, 0x3d,
  0xb1, 0x17, 0x35, 0x3d, 0x41, 0xfa, 0x1b, 0x3d, 0x07, 0x6f, 0x7b, 0xbd,
  0x85, 0x83, 0x81, 0x3d, 0xbe, 0xe4, 0x21, 0x3d, 0xce, 0x20, 0xe9, 0x3c,
  0xa3, 0x83, 0x59, 0xbe, 0xa8, 0x36, 0x68, 0x3c, 0xd3, 0xc1, 0x4b, 0xbd,
  0x86, 0xff, 0xff, 0x3d, 0x03, 0x4b, 0x77, 0xbd, 0x9a, 0xa8, 0x06, 0xbe,
  0x47, 0xb5, 0xc6, 0xbd, 0x6e, 0xc9, 0xc1, 0xbc, 0xef, 0xf4, 0x05, 0xbe,
  0x9d, 0x62, 0xee, 0x3e, 0x66, 0xa8, 0x35, 0xbe, 0x2b, 0x72, 0x9e, 0xbe,
  0x36, 0xd1, 0xac, 0x3d, 0x39, 0x68, 0xe3, 0xbd, 0xa6, 0xaa, 0xde, 0x3c,
  0xae, 0x74, 0xa9, 0xbc, 0x9a, 0x6b, 0xb6, 0xbd, 0x8d, 0x31, 0x7d, 0x3e,
  0x8a, 0xb0, 0xc8, 0xbe, 0x2c, 0x5d, 0x57, 0xbe, 0x49, 0xdf, 0x62, 0xbe,
  0xf3, 0x1c, 0x29, 0x3e, 0xef, 0x35, 0x0c, 0x3e, 0x70, 0x2c, 0x8a, 0xbe,
  0x0e, 0x12, 0x59, 0xbe, 0x72, 0x33, 0x7e, 0x3e, 0xe3, 0xb7, 0x80, 0xbe,
  0x46, 0xe3, 0x90, 0xbe, 0x6a, 0xa2, 0x07, 0xbe, 0xbe, 0xc0, 0x08, 0x3e,
  0x03, 0x34, 0x4a, 0x3d, 0x60, 0xa2, 0x04, 0xbe, 0x50, 0xb2, 0xa6, 0x3d,
  0x54, 0x5e, 0x40, 0x3e, 0xac, 0x86, 0x98, 0xbd, 0x2a, 0xe2, 0xf8, 0xbd,
  0x49, 0xae, 0xf4, 0xbd, 0x45, 0xda, 0xa5, 0x3c, 0xfb, 0xdb, 0x8e, 0x3e,
  0x07, 0xef, 0x38, 0x3d, 0x7f, 0x95, 0x5a, 0xbe, 0x9f, 0xc6, 0xd1, 0xbc,
  0xbb, 0xe3, 0x71, 0xbe, 0xb1, 0xe0, 0xc3, 0xbe, 0xfa, 0xc6, 0xc1, 0x3d,
  0xee, 0x03, 0x02, 0x3c, 0xb5, 0x16, 0x6b, 0xbd, 0x25, 0xe5, 0xc5, 0xbd,
  0x08, 0x45, 0x07, 0x3e, 0x8c, 0x29, 0x6c, 0x3e, 0x6e, 0x1a, 0x88, 0x3c,
  0x43, 0x08, 0x81, 0x3d, 0x9f, 0xce, 0x35, 0xbe, 0x85, 0x80, 0x11, 0xbd,
  0xe5, 0x48, 0xb1, 0x3d, 0x1a, 0x79, 0x3d, 0x3e, 0x0f, 0x2c, 0x61, 0xbb,
  0x95, 0x22, 0xd9, 0xbd, 0xab, 0x71, 0x87, 0xbe, 0x6e, 0x9d, 0xaa, 0xbd,
  0xa8, 0x5d, 0xde, 0xbc, 0xed, 0x8b, 0xab, 0x3d, 0xaa, 0x11, 0x56, 0xbe,
  0xd3, 0x83, 0x47, 0xbe, 0xaa, 0xd9, 0x0d, 0x3e, 0x5f, 0xb7, 0xc6, 0x3d,
  0x3d, 0xf5, 0xac, 0xbc, 0x1f, 0xb3, 0x06, 0xbe, 0x06, 0x05, 0xd7, 0x39,
  0xc0, 0x8b, 0xa7, 0x3d, 0x53, 0x91, 0xde, 0x3d, 0xfa, 0x45, 0x71, 0xbd,
  0x78, 0xbf, 0x59, 0xbc, 0xb9, 0xa0, 0x91, 0x3c, 0x1a, 0x57, 0x18, 0xbd,
  0x7e, 0x6c, 0x83, 0xbe, 0x5e, 0x4a, 0x93, 0xbd, 0x47, 0xa1, 0x1f, 0x3e,
  0xe2, 0x9b, 0xeb, 0xbd, 0xfe, 0x3a, 0x6b, 0xbe, 0xed, 0x29, 0x22, 0xbe,
  0xa4, 0xc3, 0x64, 0x3e, 0x49, 0x17, 0x43, 0xbe, 0xca, 0x06, 0xaa, 0xbe,
  0x00, 0xfc, 0xfe, 0x3c, 0x25, 0x02, 0x18, 0xbd, 0x1a, 0x82, 0xa9, 0xbd,
  0x93, 0x3f, 0x83, 0xbd, 0xfd, 0x45, 0x91, 0xbe, 0xca, 0x2d, 0xa7, 0x3c,
  0xfd, 0x80, 0x29, 0xbe, 0xf7, 0xd9, 0x8e, 0xbe, 0x91, 0x66, 0x06, 0xbe,
  0x0e, 0xff, 0x2a, 0x3d, 0xdc, 0xd5, 0x49, 0x3d, 0xc4, 0x0e, 0x8e, 0x3d,
  0x75, 0x56, 0x05, 0x3e, 0xd1, 0xb9, 0xab, 0x3e, 0xad, 0x15, 0x90, 0x3d,
  0xb9, 0xcc, 0x08, 0xbe, 0xee, 0x90, 0xb8, 0x3d, 0x97, 0xa2, 0xd0, 0x3c,
  0xb9, 0xdf, 0x90, 0x3e, 0x9a, 0x19, 0xe5, 0x3c, 0xaa, 0xf9, 0x89, 0xbe,
  0x18, 0xfc, 0x99, 0xbc, 0x06, 0x18, 0x28, 0xbe, 0x3d, 0x30, 0xcd, 0xbd,
  0x73, 0x52, 0x03, 0xbd, 0x48, 0xe3, 0xe9, 0x3b, 0x80, 0xe1, 0xa6, 0xbe,
  0xeb, 0xf7, 0xe1, 0x3d, 0x66, 0x5d, 0xa0, 0xbd, 0xd4, 0x87, 0x32, 0x3e,
  0xb8, 0x2c, 0x10, 0xbe, 0x1d, 0x71, 0x17, 0xbe, 0x53, 0x65, 0x76, 0xbe,
  0xd1, 0xa9, 0x1d, 0x3e, 0x0a, 0x98, 0x9d, 0xbd, 0x17, 0x7a, 0x1b, 0xbe,
  0x5a, 0x61, 0xd5, 0xbd, 0x52, 0x18, 0x77, 0x3e, 0x46, 0xdb, 0x28, 0xbf,
  0xb0, 0xf0, 0x6b, 0xbe, 0x2c, 0x31, 0xf7, 0x3d, 0x0b, 0x11, 0xdb, 0x3e,
  0x52, 0xb7, 0x52, 0x3e, 0x06, 0xb1, 0x1a, 0xbe, 0x58, 0x86, 0xe4, 0xbe,
  0x2a, 0x3b, 0xfe, 0x3d, 0xf8, 0x14, 0x4d, 0x3e, 0x9c, 0x4d, 0x26, 0xbe,
  0x3c, 0xe5, 0xbc, 0xbd, 0x0e, 0xf6, 0xcb, 0x3e, 0x8e, 0x18, 0x6b, 0x3e,
  0xc5, 0xbc, 0xcb, 0xbe, 0xed, 0xef, 0xca, 0xbe, 0xf8, 0xeb, 0xc5, 0x3d,
  0xe1, 0xaf, 0x12, 0xbf, 0xc6, 0xdd, 0xd7, 0x3b, 0x45, 0x20, 0xd8, 0xbd,
  0xf1, 0xf4, 0x27, 0x3e, 0x70, 0x4b, 0xb5, 0xbd, 0x71, 0x0b, 0x82, 0xbc,
  0x61, 0x82, 0xa3, 0x3e, 0x9d, 0xdf, 0x51, 0x3e, 0x16, 0x7f, 0xb4, 0x3d,
  0x72, 0xb4, 0x9b, 0xbe, 0x91, 0x82, 0xac, 0x3b, 0x35, 0xf2, 0xdb, 0x3e,
  0x69, 0xb3, 0xd1, 0x3d, 0x05, 0x6f, 0x88, 0xbd, 0x25, 0x6f, 0x70, 0xbd,
  0xdf, 0x16, 0x61, 0xbe, 0x69, 0xa4, 0xf4, 0xbe, 0xf4, 0x9a, 0xe1, 0x3d,
  0x59, 0xa1, 0x05, 0xbe, 0xac, 0xa0, 0xbf, 0x3d, 0xb8, 0xbe, 0x64, 0xbe,
  0xbc, 0x28, 0x31, 0xbe, 0x83, 0x86, 0x29, 0x3f, 0xf4, 0x6f, 0x7c, 0x3d,
  0x1f, 0xbb, 0x92, 0x3c, 0x15, 0xd7, 0x93, 0xbe, 0xb0, 0x9b, 0x12, 0x3d,
  0x08, 0x29, 0x71, 0x3d, 0x0a, 0xd0, 0xa0, 0x3e, 0x26, 0xa5, 0x91, 0x3b,
  0x42, 0xda, 0x70, 0xbd, 0x8e, 0xd4, 0x4b, 0xbe, 0xf9, 0xee, 0xbe, 0xbe,
  0xe4, 0xe4, 0x04, 0x3c, 0xda, 0xa3, 0xd0, 0xbc, 0x9c, 0x20, 0x6e, 0x3d,
  0x53, 0xb0, 0x3a, 0xbe, 0xea, 0x0d, 0xa2, 0xbd, 0xf8, 0x83, 0x35, 0x3f,
  0x90, 0xe4, 0x88, 0x3d, 0xd3, 0x6c, 0xb3, 0x3c, 0x01, 0x50, 0x72, 0xbe,
  0xc4, 0x96, 0x93, 0xbd, 0xe2, 0xf6, 0xc7, 0xbd, 0x2f, 0x6a, 0x07, 0x3f,
  0x98, 0xae, 0x39, 0xbe, 0x63, 0x6b, 0x99, 0xbc, 0x92, 0x1a, 0x0a, 0xbd,
  0x3c, 0xc1, 0xa6, 0xbe, 0xac, 0x2a, 0x95, 0xbe, 0xc1, 0xd2, 0x1f, 0x3c,
  0x90, 0x90, 0x1a, 0xbc, 0xe9, 0xd4, 0x0c, 0x3d, 0xe1, 0xba, 0xd4, 0xbd,
  0x94, 0x51, 0xbd, 0x3e, 0x88, 0x1c, 0x97, 0x3e, 0x8d, 0x1a, 0x91, 0x3d,
  0xe2, 0x0e, 0xc5, 0xbe, 0x0c, 0x26, 0xfd, 0xbd, 0xd5, 0x3a, 0x6c, 0xbd,
  0xd2, 0x2e, 0xb6, 0x3e, 0x68, 0xb2, 0x50, 0xbe, 0x48, 0x41, 0xdb, 0xbe,
  0xa7, 0x1f, 0xc7, 0x3d, 0x8b, 0x41, 0xd3, 0xbe, 0xf2, 0x22, 0xae, 0xbe,
  0xeb, 0xb7, 0xe2, 0x3d, 0x84, 0x19, 0x99, 0x3d, 0x6b, 0xa1, 0xcd, 0x3d,
  0xeb, 0xee, 0x03, 0xbe, 0x05, 0xc2, 0xea, 0x3e, 0xe6, 0x27, 0x44, 0x3e,
  0x29, 0xb4, 0x05, 0x3d, 0xea, 0x37, 0x05, 0xbf, 0x02, 0x47, 0xce, 0xbd,
  0x1e, 0x7b, 0x68, 0xbd, 0x22, 0x11, 0xd4, 0x3e, 0x12, 0xae, 0x0c, 0xbe,
  0xe9, 0xc0, 0x88, 0xbe, 0x03, 0x87, 0x07, 0xbb, 0xc0, 0xde, 0x57, 0xbe,
  0x80, 0xef, 0x95, 0x3d, 0x23, 0x96, 0x6b, 0x3e, 0xc4, 0x35, 0xc3, 0x3d,
  0x67, 0x20, 0x21, 0xbe, 0x75, 0x5b, 0x9f, 0x3c, 0x1a, 0xa9, 0x48, 0x3d,
  0x91, 0xfd, 0xca, 0x3d, 0x17, 0xde, 0xe9, 0xbc, 0xd3, 0x74, 0x79, 0xbe,
  0xa1, 0x16, 0xd6, 0x3d, 0xe4, 0xf3, 0xab, 0x3d, 0xa1, 0x23, 0xbb, 0xbd,
  0xa6, 0xd0, 0x47, 0x3a, 0x07, 0x3b, 0x33, 0xbe, 0x94, 0x20, 0x1d, 0xbe,
  0xe5, 0x63, 0xdb, 0xbd, 0x53, 0x7a, 0x26, 0x3e, 0x20, 0x01, 0xb3, 0xbd,
  0xc5, 0xb9, 0x18, 0xbe, 0x31, 0x38, 0x7d, 0xbe, 0xd5, 0x00, 0xe7, 0xbb,
  0x5a, 0xd8, 0x27, 0xbe, 0x07, 0x9c, 0x66, 0xbe, 0x2f, 0x99, 0x18, 0xbe,
  0xcf, 0xae, 0x88, 0xbc, 0xc5, 0xd2, 0x06, 0x3e, 0x9c, 0xc7, 0xa1, 0xbe,
  0x34, 0x93, 0xee, 0xbc, 0xfd, 0x16, 0x98, 0x3b, 0x71, 0x57, 0x84, 0xbd,
  0x51, 0x7d, 0xdf, 0xbe, 0x68, 0x23, 0x39, 0xbd, 0x59, 0x88, 0x0e, 0x3e,
  0x60, 0x12, 0xc4, 0x3d, 0x94, 0x2a, 0x5e, 0xbd, 0x2d, 0x03, 0x9f, 0x3d,
  0xb7, 0xc3, 0x8b, 0xbd, 0xb3, 0x04, 0xe1, 0xbc, 0xdb, 0x83, 0x1a, 0xbe,
  0xa8, 0x98, 0xe0, 0xbd, 0xa9, 0x8e, 0xf1, 0x3b, 0x26, 0xc6, 0x75, 0xbc,
  0x4e, 0xb2, 0x84, 0xbe, 0x22, 0x7c, 0xcd, 0x3d, 0xe6, 0xfd, 0x27, 0xbe,
  0xab, 0x59, 0xe4, 0x3d, 0x9b, 0x1d, 0xac, 0x3d, 0xe8, 0xe2, 0xfb, 0xbd,
  0xc5, 0xa6, 0x34, 0xbd, 0x9a, 0x93, 0x16, 0x3e, 0x3b, 0xb2, 0x2c, 0xbe,
  0x39, 0x30, 0x70, 0x3d, 0x92, 0x7e, 0x80, 0x3e, 0x34, 0x7a, 0x27, 0xbb,
  0x11, 0xf2, 0x37, 0xbe, 0x51, 0xe8, 0x57, 0x3d, 0x0d, 0xaa, 0xa9, 0xbe,
  0xe4, 0x5f, 0x9e, 0x3d, 0x18, 0x3b, 0xe5, 0xbd, 0x91, 0x31, 0x39, 0xbd,
  0x43, 0xfb, 0x53, 0xbe, 0xf9, 0xeb, 0x60, 0xbc, 0xbd, 0xba, 0x87, 0x3e,
  0x2d, 0x42, 0x70, 0xbd, 0x0d, 0xca, 0x20, 0xbc, 0x1f, 0xf5, 0xba, 0x3d,
  0xf0, 0x05, 0x1b, 0xbe, 0x4f, 0xd6, 0x76, 0x3e, 0xda, 0x3f, 0x80, 0x3c,
  0xed, 0x45, 0x74, 0x3d, 0x08, 0x56, 0x2c, 0x3d, 0xc8, 0x5d, 0x5d, 0xbd,
  0x22, 0xec, 0x82, 0xbe, 0x53, 0xbb, 0x65, 0x3d, 0x86, 0xc7, 0xd9, 0x3d,
  0x4a, 0x87, 0xd4, 0x3c, 0x41, 0x26, 0xee, 0x3c, 0x03, 0x63, 0x36, 0xbc,
  0x61, 0x44, 0xa4, 0x3d, 0x7a, 0x20, 0x19, 0xbe, 0x6b, 0xc9, 0x86, 0x3e,
  0xa4, 0x23, 0x64, 0xbe, 0xd3, 0xba, 0x69, 0xbe, 0xa7, 0xf7, 0x97, 0xbd,
  0x94, 0xa7, 0x45, 0x3e, 0x22, 0x10, 0x2d, 0xbe, 0xd5, 0xb0, 0xe4, 0xbc,
  0x1c, 0x7c, 0x00, 0xbe, 0xe6, 0x41, 0x23, 0x3e, 0x27, 0x9d, 0xd8, 0x3d,
  0x14, 0x83, 0x44, 0xbd, 0x83, 0x5f, 0x9a, 0x3b, 0x7b, 0xa6, 0x9f, 0xbe,
  0xe9, 0x6b, 0x70, 0x3c, 0x85, 0x80, 0x35, 0x3e, 0xc8, 0x33, 0xba, 0xbd,
  0x57, 0xc0, 0x8b, 0x3e, 0x03, 0x47, 0xa5, 0xbe, 0xeb, 0x06, 0xfb, 0xbd,
  0xea, 0xfb, 0x73, 0x3d, 0x03, 0x3a, 0xc7, 0x3d, 0x6d, 0xae, 0x72, 0x3d,
  0x54, 0xc9, 0x45, 0xbe, 0xdb, 0x77, 0xb6, 0x3d, 0x6b, 0x08, 0x45, 0x3d,
  0x12, 0x9b, 0x74, 0x3e, 0x52, 0x0f, 0x2e, 0xbe, 0x99, 0x03, 0x4d, 0xbd,
  0x78, 0x87, 0xa3, 0xbe, 0xc9, 0x58, 0x09, 0x3e, 0x4f, 0x0c, 0xa7, 0x3d,
  0xa4, 0x7d, 0x46, 0x3d, 0xe8, 0xad, 0xfb, 0xbd, 0xf7, 0xdd, 0x73, 0xbe,
  0xd8, 0xc2, 0xbc, 0xbe, 0x1b, 0x7f, 0x84, 0x3e, 0xfc, 0x6e, 0xe1, 0xbd,
  0x29, 0xf4, 0x99, 0xbe, 0x89, 0xe2, 0xb4, 0xbd, 0x8e, 0xed, 0xe5, 0x3d,
  0x52, 0xe9, 0x45, 0xbe, 0x5a, 0x49, 0xf3, 0xbd, 0x98, 0x14, 0xaa, 0x3b,
  0x71, 0x30, 0x25, 0xbe, 0xd2, 0x09, 0xc7, 0xbe, 0xaf, 0x23, 0x06, 0xbe,
  0xf2, 0x5a, 0xac, 0x3e, 0xb6, 0x0a, 0x90, 0xbe, 0xd6, 0xb1, 0x5e, 0xbe,
  0xad, 0x08, 0xa6, 0x3e, 0xf8, 0x63, 0xc2, 0x3e, 0x3f, 0xba, 0x60, 0x3e,
  0x58, 0x19, 0x32, 0x3e, 0x67, 0x85, 0x37, 0x3b, 0xb8, 0xbd, 0x1b, 0x3e,
  0x7c, 0x25, 0xe7, 0x3d, 0x40, 0x66, 0xf3, 0xbd, 0x6f, 0x38, 0x99, 0xbe,
  0x7f, 0x45, 0xc0, 0x3e, 0xb9, 0x4e, 0x8c, 0x3e, 0xcd, 0x40, 0x4e, 0xbe,
  0x73, 0xbe, 0xab, 0xbe, 0x06, 0x08, 0x10, 0x3e, 0x71, 0xea, 0xbe, 0xbd,
  0xa3, 0x42, 0x14, 0xbe, 0x46, 0x92, 0x0e, 0x3d, 0x44, 0xd0, 0x27, 0x3e,
  0x56, 0x05, 0xd4, 0xbd, 0x54, 0x30, 0x28, 0x3e, 0xda, 0x54, 0x70, 0x3e,
  0xee, 0xa8, 0x70, 0x3e, 0x43, 0x7c, 0xab, 0x3d, 0xc1, 0x74, 0x47, 0xbe,
  0xae, 0x1d, 0x0c, 0xbe, 0x9b, 0x21, 0xa8, 0x3e, 0x85, 0x03, 0x8d, 0x3e,
  0x1d, 0x18, 0xc1, 0x3d, 0xa8, 0xb3, 0xef, 0xbd, 0x76, 0x44, 0xab, 0xbd,
  0x0a, 0x29, 0x8d, 0xbe, 0x65, 0x95, 0xaf, 0xbc, 0x63, 0x1b, 0xb4, 0xbd,
  0x5c, 0xb3, 0x59, 0x3e, 0xf2, 0x95, 0x8f, 0xbe, 0x72, 0x73, 0xb2, 0x3d,
  0xaf, 0x36, 0x05, 0x3f, 0x1a, 0xad, 0x36, 0x3d, 0x42, 0x5a, 0x8b, 0x3c,
  0x98, 0xba, 0xb4, 0xbd, 0x4a, 0xd7, 0xcb, 0xbd, 0xcf, 0x79, 0x6b, 0xbd,
  0x55, 0x69, 0xb6, 0x3e, 0x94, 0x6c, 0x64, 0x3e, 0x25, 0x0e, 0xf8, 0xbd,
  0x3f, 0xad, 0xe4, 0xbd, 0x82, 0x66, 0x19, 0x3d, 0x2b, 0x3f, 0xd5, 0x3c,
  0xa1, 0x70, 0x33, 0xbd, 0x25, 0x44, 0x5c, 0xbc, 0x1c, 0xa8, 0xa3, 0x3b,
  0x16, 0x3c, 0x0e, 0x3b, 0xf3, 0x8d, 0xa3, 0x3e, 0x3c, 0x0d, 0x17, 0xbe,
  0xd4, 0x1c, 0x7f, 0xbd, 0xee, 0x8b, 0xa7, 0xbc, 0xaa, 0x95, 0x22, 0xbd,
  0x48, 0x75, 0xd3, 0xbc, 0x9f, 0x25, 0xf0, 0x3e, 0x16, 0x77, 0xe8, 0xbd,
  0x4a, 0x49, 0x68, 0xbe, 0x0c, 0x6e, 0xf5, 0x3c, 0x05, 0x42, 0x85, 0xbe,
  0x3f, 0x5f, 0xdc, 0xbd, 0xf6, 0xc6, 0x06, 0xbe, 0x57, 0xf6, 0x01, 0xba,
  0xeb, 0x97, 0x1e, 0x3e, 0x20, 0x43, 0x29, 0x3c, 0x49, 0x42, 0xc5, 0x3e,
  0x01, 0xab, 0xf3, 0x3d, 0xcf, 0xdd, 0x5f, 0xbd, 0x39, 0x93, 0xb8, 0xbe,
  0xc1, 0x2e, 0x03, 0xbe, 0x07, 0x42, 0xc1, 0xbc, 0x04, 0x31, 0x6e, 0x3e,
  0xe7, 0xd0, 0x75, 0xbe, 0xb1, 0xf5, 0xdc, 0xbe, 0x8c, 0x60, 0x79, 0x3e,
  0x6b, 0x9f, 0xf9, 0xbd, 0x3d, 0x64, 0x6f, 0xbe, 0x39, 0xb7, 0x2f, 0xbd,
  0x0e, 0x81, 0x0a, 0x3c, 0x99, 0x02, 0x1e, 0x3e, 0x12, 0x85, 0x8c, 0x3b,
  0x1a, 0x9f, 0xf8, 0x3e, 0x57, 0xc0, 0x50, 0x3c, 0x80, 0xd4, 0x3d, 0xbd,
  0x5c, 0x9a, 0xc8, 0xbe, 0x9f, 0x4c, 0xbf, 0xbd, 0xbb, 0xc8, 0x51, 0x3d,
  0x59, 0x79, 0x0e, 0x3f, 0xb2, 0x59, 0x5d, 0xbe, 0xdf, 0x25, 0x5b, 0xbe,
  0x94, 0xb0, 0xbd, 0xbc, 0x51, 0xbd, 0x47, 0xbe, 0x91, 0x3d, 0x96, 0x3d,
  0xec, 0x52, 0xc5, 0xbd, 0xda, 0x58, 0xce, 0x3d, 0x3b, 0x29, 0x91, 0xbe,
  0xa8, 0x5e, 0x0c, 0x3e, 0xdf, 0x63, 0x1e, 0x3e, 0x52, 0xdc, 0x0a, 0x3d,
  0xf7, 0x6c, 0x91, 0xbd, 0xc5, 0xd3, 0x5c, 0xbe, 0xe2, 0xda, 0xcc, 0x3d,
  0x16, 0xd5, 0x88, 0x3d, 0x90, 0x69, 0xb3, 0x3c, 0x45, 0x3c, 0xf8, 0x3d,
  0x66, 0xa8, 0x90, 0xbe, 0xa0, 0xad, 0x74, 0xbf, 0x73, 0x27, 0x25, 0xbe,
  0xfb, 0x3e, 0x99, 0x3e, 0x9b, 0x40, 0x83, 0x3d, 0xd4, 0x7a, 0xee, 0x3d,
  0xfd, 0x56, 0xf7, 0xbe, 0x2d, 0xf8, 0x86, 0x3e, 0xa1, 0x68, 0x29, 0xbe,
  0x5d, 0xe0, 0x49, 0xbd, 0x4e, 0x52, 0x88, 0xbe, 0x2c, 0xfb, 0x01, 0x3e,
  0x7f, 0x72, 0x27, 0x3e, 0xf4, 0x44, 0xc4, 0xbe, 0xbe, 0x23, 0x81, 0xbe,
  0xbb, 0x0a, 0xd6, 0xbc, 0xb3, 0xfe, 0x8a, 0x3c, 0x23, 0x87, 0xc8, 0xbe,
  0x2d, 0x1e, 0xe5, 0xbd, 0xde, 0x0c, 0x78, 0x3e, 0x97, 0x24, 0x31, 0x3d,
  0x42, 0x4d, 0x40, 0xbe, 0x48, 0x59, 0x9c, 0xbd, 0x44, 0xbf, 0x79, 0x3d,
  0x63, 0xca, 0x1d, 0xbe, 0xb8, 0x24, 0x25, 0xbe, 0xbf, 0xf7, 0x02, 0xbb,
  0xb8, 0xb0, 0xb1, 0xbe, 0x08, 0x21, 0x2a, 0x3d, 0xb2, 0xbc, 0x8b, 0xbe,
  0x2e, 0xa8, 0xcc, 0xbd, 0x85, 0xe0, 0xaf, 0xbd, 0xb4, 0xf9, 0x07, 0x3d,
  0xc6, 0x7c, 0x38, 0x3e, 0xf2, 0x34, 0xf0, 0xbc, 0x92, 0xd4, 0x97, 0xbd,
  0xf3, 0x00, 0x9b, 0x3d, 0x62, 0x5a, 0xa0, 0x3a, 0x6c, 0xb6, 0x2e, 0x3e,
  0x42, 0xec, 0x9d, 0xbd, 0x3f, 0x2a, 0x86, 0xbc, 0x50, 0x35, 0x6a, 0xbd,
  0x02, 0x0a, 0x08, 0x3d, 0x09, 0x3a, 0x55, 0xbe, 0xd2, 0xd8, 0x21, 0x3d,
  0xdf, 0x51, 0x48, 0xbd, 0xd0, 0xab, 0x9b, 0x3d, 0x03, 0xc0, 0x96, 0x3e,
  0x13, 0x56, 0x1c, 0xbe, 0x7a, 0xd8, 0xac, 0x3e, 0xb1, 0xb7, 0x76, 0xbe,
  0xc5, 0x11, 0xcd, 0xbd, 0x6f, 0x3b, 0xb4, 0xbd, 0x52, 0xff, 0x12, 0xbe,
  0x73, 0x61, 0x92, 0x3c, 0x03, 0xf7, 0x65, 0x3d, 0x38, 0xf8, 0x36, 0xbd,
  0x36, 0xef, 0x38, 0xbd, 0xd1, 0x7f, 0xb4, 0x3c, 0x7d, 0xb7, 0x27, 0xbe,
  0x9c, 0xaf, 0x82, 0x3d, 0x0d, 0x9f, 0x8a, 0x3d, 0x38, 0xfb, 0x86, 0xbd,
  0xea, 0x50, 0x98, 0x3e, 0x44, 0x26, 0x5d, 0xbc, 0x2e, 0x34, 0xdd, 0x3d,
  0xb1, 0x3a, 0x30, 0xbe, 0x8c, 0x17, 0xf7, 0x3d, 0x77, 0x84, 0xca, 0xbd,
  0x73, 0xdf, 0xa2, 0xbe, 0x58, 0x16, 0xf1, 0x3d, 0x37, 0x74, 0x1e, 0xbe,
  0x10, 0x5d, 0x0d, 0xbe, 0x7f, 0x9d, 0xb2, 0x3c, 0x28, 0x0e, 0x4f, 0x3d,
  0x1f, 0xec, 0x1f, 0x3e, 0x9b, 0x6f, 0x06, 0x3e, 0x5f, 0xbe, 0x57, 0xbd,
  0x9b, 0x00, 0x57, 0xbd, 0xec, 0xfc, 0xdb, 0xbd, 0xda, 0x41, 0x66, 0xbe,
  0x24, 0x41, 0x8c, 0x3e, 0x00, 0x68, 0xf9, 0xbd, 0x4e, 0x98, 0x9d, 0x3e,
  0x81, 0xfa, 0xc3, 0xbd, 0xcd, 0x37, 0x81, 0xbe, 0x3a, 0x90, 0x8a, 0xbd,
  0x3d, 0xdf, 0xa2, 0x3d, 0xc5, 0x06, 0x7a, 0x3b, 0x80, 0x67, 0x4d, 0xbe,
  0xb0, 0x7a, 0xe2, 0x3d, 0x16, 0x01, 0x58, 0x3d, 0x09, 0xeb, 0x34, 0xbd,
  0x33, 0x8f, 0xbe, 0xbd, 0x02, 0xe3, 0x39, 0x3d, 0x4a, 0xde, 0x0d, 0xbe,
  0x1e, 0x65, 0xab, 0xbd, 0x8b, 0x83, 0x93, 0xbb, 0xa0, 0x87, 0x00, 0x3c,
  0x03, 0xe3, 0xf9, 0xbd, 0xb9, 0xd9, 0xd7, 0xbe, 0x0d, 0xb6, 0xbe, 0xbe,
  0xcc, 0xe1, 0x5b, 0x3e, 0x69, 0x24, 0x95, 0xbe, 0xd4, 0xb8, 0x80, 0xbd,
  0x2b, 0xc5, 0x2e, 0xbe, 0xa0, 0xdd, 0x0b, 0x3e, 0x70, 0x41, 0xa5, 0x3d,
  0x0f, 0xb8, 0xf4, 0xbd, 0xb9, 0xbf, 0x19, 0xbe, 0xbc, 0x68, 0x22, 0xbd,
  0xd3, 0xa7, 0x7f, 0xbd, 0xd7, 0xcd, 0xbc, 0x3a, 0x3b, 0x6d, 0x47, 0x3e,
  0xbd, 0x14, 0xb5, 0xbe, 0xd0, 0xa1, 0x95, 0x3b, 0x95, 0x6d, 0xc9, 0x3d,
  0x61, 0xd6, 0xe1, 0x3d, 0xa5, 0x74, 0xff, 0xbd, 0x0b, 0x69, 0x85, 0xbd,
  0xfe, 0x47, 0xa8, 0xbe, 0xf3, 0xcb, 0x31, 0x3e, 0x5c, 0x42, 0xc9, 0x3d,
  0xd6, 0x56, 0xe6, 0xbd, 0x76, 0xcd, 0xb4, 0xbd, 0xc5, 0x17, 0xe7, 0x3d,
  0xb5, 0xfe, 0x1b, 0xbd, 0x66, 0x45, 0xab, 0x3c, 0x88, 0xbb, 0x51, 0xbe,
  0x04, 0x3b, 0xef, 0x3e, 0xc8, 0xa6, 0x09, 0xbe, 0xf8, 0x8e, 0xeb, 0xbd,
  0x40, 0x93, 0x5e, 0xbd, 0x36, 0xe0, 0x22, 0xbe, 0x64, 0x78, 0xd1, 0xbc,
  0x8b, 0x75, 0x28, 0xbe, 0xc2, 0x75, 0x6f, 0xbe, 0x32, 0xde, 0xa5, 0x3e,
  0x52, 0x40, 0x95, 0x3c, 0xaf, 0x01, 0x26, 0xbe, 0x6b, 0x94, 0x62, 0x3c,
  0x05, 0x2a, 0x56, 0x3e, 0x8f, 0x9e, 0x3a, 0x3e, 0x9a, 0xca, 0x18, 0xbe,
  0x46, 0x24, 0xb8, 0xbe, 0x67, 0x27, 0x83, 0x3e, 0xc8, 0x50, 0x99, 0xbd,
  0x82, 0xb7, 0x73, 0xbe, 0x07, 0xfd, 0xc5, 0xbd, 0xdd, 0x52, 0x84, 0xbe,
  0xd0, 0x9e, 0x2b, 0xbe, 0x97, 0x78, 0xdf, 0x3d, 0xbf, 0x8c, 0xad, 0xbd,
  0xd5, 0xf2, 0x1a, 0x3e, 0x4c, 0xbd, 0x1c, 0xbe, 0xae, 0x39, 0x8c, 0x3d,
  0x99, 0x82, 0x93, 0xbd, 0xdf, 0x71, 0x4e, 0xbd, 0x31, 0x76, 0x04, 0x3e,
  0x9f, 0xdb, 0x05, 0xbe, 0x0b, 0xc4, 0xce, 0xbd, 0x4f, 0x32, 0xd9, 0xbd,
  0x7b, 0xa8, 0x3d, 0xbe, 0x42, 0x1e, 0xb6, 0xbe, 0xec, 0x53, 0xa2, 0x3c,
  0xb0, 0x84, 0xc7, 0xbd, 0x4c, 0x3e, 0xa2, 0x3d, 0x07, 0xe0, 0x90, 0xbc,
  0xa3, 0x50, 0x03, 0xbe, 0x2a, 0xda, 0xd2, 0x3d, 0x4c, 0x82, 0x21, 0xbe,
  0x8b, 0x91, 0xac, 0xbd, 0xd2, 0x04, 0x3b, 0xbe, 0xb0, 0x52, 0x0c, 0x3e,
  0x6f, 0x0f, 0x20, 0x3e, 0x5f, 0x7c, 0x15, 0x3e, 0xa8, 0x17, 0xc9, 0xbd,
  0x99, 0xe8, 0x3c, 0xbe, 0xf3, 0x67, 0x5f, 0xbe, 0xcf, 0x93, 0x88, 0xbd,
  0x2e, 0xd3, 0x34, 0xbd, 0xf1, 0xd9, 0x50, 0xbd, 0xc7, 0x2c, 0x26, 0xbe,
  0xdf, 0x71, 0x93, 0xbd, 0xe9, 0x6e, 0x42, 0xbe, 0xc1, 0xd1, 0x96, 0x3e,
  0x0e, 0xe0, 0x15, 0xbe, 0xb4, 0x1e, 0x1e, 0xbe, 0xde, 0xae, 0x47, 0xbd,
  0x96, 0xc4, 0x7c, 0x3d, 0xa9, 0xd3, 0x87, 0x3c, 0x12, 0x9c, 0xc0, 0x3d,
  0xed, 0x63, 0x53, 0xbd, 0x11, 0xa6, 0x02, 0xbe, 0xaa, 0x1b, 0x88, 0xbe,
  0xf3, 0xb7, 0x96, 0xbe, 0x66, 0xcd, 0xda, 0xbc, 0xb1, 0x1a, 0xcd, 0xbd,
  0xb1, 0x08, 0x91, 0xbd, 0x87, 0x10, 0x1e, 0x3d, 0x33, 0x75, 0xb2, 0xbd,
  0x0f, 0xe8, 0xe1, 0xbd, 0xf0, 0x8e, 0x15, 0xbd, 0x07, 0xb1, 0x86, 0xbe,
  0x23, 0x61, 0x41, 0xbe, 0xee, 0x4a, 0x22, 0x3e, 0xae, 0x00, 0x0a, 0x3e,
  0x34, 0x71, 0x37, 0xbe, 0x21, 0x49, 0x35, 0x3d, 0x76, 0xef, 0xb4, 0xbd,
  0x92, 0xfc, 0x83, 0xba, 0x97, 0xd4, 0x6d, 0xbb, 0x17, 0xdc, 0x47, 0xbd,
  0x49, 0xd6, 0x8e, 0x3e, 0xae, 0x2b, 0xb0, 0xbd, 0x79, 0x9e, 0x0e, 0x3e,
  0x90, 0x6b, 0x69, 0xbe, 0x0e, 0x27, 0xc3, 0x3d, 0xe6, 0x84, 0xa5, 0xbd,
  0xe5, 0xdf, 0x83, 0xbe, 0x79, 0xa8, 0xbe, 0xbe, 0xdb, 0xa4, 0x3b, 0x3e,
  0x4d, 0x8f, 0xe6, 0x3c, 0x30, 0x74, 0x66, 0xbd, 0x9c, 0x18, 0x88, 0xbe,
  0x97, 0xeb, 0x37, 0xbe, 0x54, 0xd8, 0x40, 0xbe, 0x85, 0xb3, 0x53, 0x3b,
  0x7a, 0x80, 0x2d, 0xbe, 0xfb, 0x5c, 0xca, 0x3a, 0xd3, 0x06, 0x8c, 0xbe,
  0xd0, 0xaf, 0xeb, 0xbd, 0x22, 0x9c, 0xb6, 0x3c, 0x6c, 0x94, 0x90, 0xbe,
  0xd7, 0xf7, 0x1a, 0xbe, 0x81, 0x59, 0x84, 0xbe, 0x2b, 0x76, 0xb1, 0x3b,
  0x01, 0x8b, 0x79, 0xbe, 0x09, 0x4e, 0x49, 0x3d, 0xb0, 0x86, 0x17, 0xbd,
  0xd0, 0x04, 0xee, 0xbd, 0xd4, 0xdf, 0xb1, 0x3c, 0x43, 0xb7, 0x4c, 0xbe,
  0x0b, 0x83, 0x38, 0xbe, 0x10, 0x4c, 0x7b, 0xbe, 0x90, 0x5b, 0x95, 0xbe,
  0x35, 0x18, 0xe6, 0x3c, 0xed, 0x47, 0x8f, 0xbe, 0x3c, 0xcd, 0xe9, 0xbd,
  0x0f, 0xa8, 0x71, 0xbe, 0x49, 0x3b, 0x94, 0x3d, 0x42, 0xdd, 0x0e, 0xbe,
  0xd0, 0xac, 0x35, 0xbe, 0x82, 0x09, 0x50, 0xbe, 0xef, 0xf4, 0x37, 0xbe,
  0xce, 0x75, 0x3f, 0xbe, 0x0f, 0xec, 0x3f, 0xbe, 0xa5, 0x72, 0x7d, 0x3d,
  0xf9, 0xd8, 0x6a, 0xbe, 0x99, 0x97, 0x73, 0xbd, 0x72, 0x82, 0xa3, 0x3d,
  0xcc, 0x25, 0x3f, 0xbe, 0xc3, 0xec, 0x34, 0xbd, 0x6f, 0x2d, 0x3f, 0xbe,
  0x52, 0x5e, 0xce, 0xbd, 0x37, 0x1a, 0xed, 0xbd, 0x44, 0x1a, 0x64, 0xbe,
  0x56, 0x6f, 0xf4, 0x3c, 0xe4, 0x79, 0x41, 0xbe, 0x49, 0x31, 0xe1, 0xbd,
  0xf1, 0xd6, 0x69, 0xbd, 0xdd, 0x89, 0x01, 0xbe, 0xd9, 0xfd, 0x1f, 0xbe,
  0x3f, 0x68, 0x71, 0xbe, 0x48, 0x0a, 0x70, 0xbd, 0x7f, 0x63, 0xc1, 0xbd,
  0x0f, 0xfa, 0x49, 0xbc, 0xf1, 0x56, 0xc1, 0xbd, 0xac, 0x8e, 0x5f, 0x3d,
  0x03, 0x4e, 0xac, 0xbd, 0xc8, 0xdf, 0x01, 0xbd, 0xc9, 0x84, 0x01, 0x3d,
  0xdc, 0x94, 0xbf, 0x3c, 0x81, 0xd3, 0x35, 0xbe, 0x5a, 0x3f, 0x6c, 0x3e,
  0xea, 0xe9, 0x1e, 0xbe, 0xfb, 0xdb, 0xee, 0x3d, 0xbb, 0x1f, 0x1f, 0xbd,
  0x31, 0xc5, 0x7c, 0xbe, 0xf6, 0xe0, 0x88, 0xbe, 0xce, 0x28, 0x81, 0xbe,
  0xdd, 0x5e, 0xc1, 0x3d, 0xaf, 0xa6, 0xfc, 0x3c, 0x37, 0xad, 0xb2, 0x3c,
  0xfc, 0x3b, 0xb7, 0xbd, 0x27, 0xed, 0x3e, 0x3c, 0xe4, 0xce, 0xde, 0x3d,
  0x9d, 0x58, 0x81, 0xbe, 0x8e, 0x81, 0x84, 0xbe, 0x3a, 0x04, 0x0b, 0x3c,
  0x24, 0x66, 0x42, 0xbd, 0xd1, 0x13, 0x93, 0xbe, 0x4a, 0xb0, 0xc9, 0x3d,
  0xb8, 0xe4, 0x98, 0xbd, 0x82, 0x26, 0x2b, 0xbe, 0xd5, 0x42, 0x54, 0xbe,
  0x08, 0xb1, 0x53, 0xbe, 0xec, 0xdc, 0xfb, 0xbd, 0x1b, 0x1b, 0xdd, 0xbd,
  0x74, 0x39, 0x85, 0xbd, 0x8d, 0x8f, 0xc5, 0xbd, 0x34, 0xf8, 0x70, 0xbe,
  0xfb, 0x8a, 0x32, 0x3d, 0x94, 0x55, 0x5a, 0xbe, 0x02, 0x00, 0x03, 0x3d,
  0xf4, 0x3f, 0x30, 0xbe, 0x4f, 0x7f, 0x0a, 0xbe, 0x09, 0x81, 0x03, 0xbe,
  0x7a, 0x0f, 0x65, 0x3c, 0xc5, 0x47, 0x42, 0x3d, 0xef, 0xaa, 0xfb, 0xbc,
  0x3e, 0x38, 0xa6, 0x3d, 0x6b, 0x79, 0xc4, 0xbd, 0xbc, 0x93, 0x7f, 0xbe,
  0xbe, 0x05, 0x03, 0xbe, 0x82, 0x58, 0x29, 0xbe, 0x37, 0xed, 0x55, 0xbe,
  0x7c, 0x7e, 0x39, 0xbe, 0x1c, 0xca, 0x61, 0xbe, 0xf3, 0x39, 0x09, 0x3e,
  0xb6, 0x12, 0xab, 0x3b, 0x6e, 0xa2, 0x29, 0xbd, 0x6e, 0xfc, 0x3d, 0x3d,
  0x10, 0x5a, 0xb2, 0xbc, 0x79, 0xc3, 0x0d, 0xbe, 0xd4, 0xb9, 0x5b, 0x3e,
  0xef, 0x38, 0x30, 0xbe, 0x0f, 0x17, 0x5e, 0xbe, 0xa4, 0x75, 0x83, 0x3e,
  0x1e, 0x96, 0xa2, 0xbd, 0xd8, 0x79, 0x6f, 0xbd, 0x70, 0xc6, 0xd6, 0x38,
  0xb1, 0x93, 0xac, 0x3a, 0x8d, 0x3a, 0x76, 0xbd, 0xb2, 0xd2, 0x1b, 0xbc,
  0x26, 0x86, 0x6c, 0x3b, 0x78, 0x0f, 0xb8, 0x3b, 0x15, 0x58, 0x9e, 0x3c,
  0x6b, 0x64, 0xc8, 0xbe, 0x4c, 0x0f, 0x23, 0xbd, 0xb4, 0xc9, 0x92, 0xbe,
  0xf4, 0x57, 0x1e, 0x3f, 0xff, 0xce, 0x31, 0x3d, 0x89, 0xd5, 0x1d, 0xbd,
  0xca, 0x01, 0xe5, 0x3d, 0x5b, 0x94, 0xca, 0xbd, 0xa4, 0x06, 0x1b, 0xbe,
  0xd1, 0x08, 0x34, 0xbd, 0x06, 0x40, 0xfa, 0xbc, 0x46, 0x75, 0xfa, 0x3d,
  0x68, 0x56, 0xae, 0xbe, 0xe7, 0x98, 0x60, 0xbd, 0x1f, 0xd3, 0x68, 0xbe,
  0xc1, 0x97, 0xbe, 0x3d, 0x8d, 0x9f, 0x7f, 0xbe, 0xc4, 0xc0, 0x92, 0xbd,
  0xe9, 0x63, 0xc5, 0xbe, 0x19, 0xba, 0xcf, 0x3e, 0xa0, 0x4b, 0x38, 0x3d,
  0xd8, 0x0b, 0x11, 0xbd, 0x41, 0x7b, 0x0d, 0x3e, 0x84, 0x58, 0xcf, 0x3d,
  0x6e, 0x90, 0x95, 0xbd, 0xe2, 0x8a, 0x86, 0x3d, 0xeb, 0xa2, 0x4e, 0xbc,
  0x59, 0x04, 0x86, 0x3d, 0xe8, 0xf1, 0x37, 0xbe, 0x08, 0x65, 0x2b, 0xbe,
  0x03, 0x56, 0x11, 0xbd, 0x9c, 0xaa, 0x08, 0x3e, 0xa4, 0x21, 0xc8, 0xbe,
  0xd6, 0x39, 0x8f, 0x3c, 0x62, 0xaf, 0x48, 0xbe, 0xa5, 0x8f, 0x2d, 0x3e,
  0x48, 0xe4, 0xbf, 0x3c, 0x0b, 0x58, 0xda, 0x3c, 0xc8, 0x78, 0x04, 0x3e,
  0xcb, 0x23, 0x7d, 0x3d, 0x7c, 0x9a, 0x44, 0xbd, 0xd3, 0xb8, 0x0d, 0xbd,
  0x56, 0xd0, 0x30, 0xbe, 0xe8, 0x96, 0x93, 0xbd, 0x48, 0x03, 0xe3, 0xbe,
  0x77, 0x66, 0x92, 0x3c, 0x86, 0xdf, 0x61, 0xbe, 0xda, 0x77, 0x31, 0x3c,
  0xd3, 0x48, 0x2a, 0xbe, 0xc5, 0x98, 0x0c, 0xbb, 0x7f, 0x83, 0x5d, 0xbe,
  0x7d, 0x0f, 0xde, 0x3d, 0xf0, 0x17, 0x0b, 0x3e, 0x26, 0x17, 0xd7, 0xbd,
  0x02, 0xf1, 0xcd, 0x3c, 0x02, 0x4d, 0x8d, 0xbd, 0x03, 0x88, 0x86, 0xbd,
  0x71, 0xfc, 0x5f, 0xbd, 0x91, 0x2f, 0xd7, 0xbd, 0xd4, 0xc7, 0xc7, 0xbd,
  0xaf, 0x6c, 0x80, 0xbe, 0x72, 0x66, 0xf3, 0x3d, 0xec, 0x9d, 0x4d, 0xbe,
  0xdf, 0xe7, 0x98, 0x3d, 0xa8, 0x2c, 0xbe, 0xbe, 0xc0, 0x11, 0xb6, 0xbd,
  0x6c, 0x3f, 0x99, 0xbe, 0x77, 0xb1, 0x2e, 0x3e, 0xf6, 0x9b, 0xcb, 0x3d,
  0x65, 0x03, 0x20, 0xbe, 0x78, 0x06, 0x3e, 0x3d, 0xa2, 0xbf, 0x71, 0xbd,
  0x98, 0x6f, 0xae, 0xbd, 0x61, 0x13, 0xce, 0xbd, 0xa8, 0x71, 0x42, 0xbe,
  0x8b, 0xf9, 0x32, 0xbe, 0x64, 0x55, 0x40, 0xbe, 0x6e, 0xe9, 0xb1, 0x3e,
  0x2f, 0x27, 0xbd, 0xbe, 0x9f, 0x09, 0x04, 0x3e, 0x65, 0x37, 0xc6, 0xbe,
  0xbe, 0x44, 0x0b, 0xbe, 0x77, 0x82, 0x30, 0xbe, 0xbe, 0x13, 0x05, 0x3d,
  0x44, 0x7b, 0x49, 0x3d, 0x95, 0xfc, 0xae, 0xbe, 0x16, 0x92, 0xb8, 0x3a,
  0x9b, 0xf2, 0x90, 0x3c, 0xbf, 0xa8, 0xd6, 0x3d, 0xf9, 0xe2, 0x80, 0x3d,
  0x62, 0x97, 0xf5, 0x3a, 0xda, 0x0c, 0x3c, 0x3d, 0x05, 0xf5, 0xc1, 0xbb,
  0x33, 0x58, 0x24, 0x3e, 0x12, 0x25, 0xa3, 0xbe, 0x30, 0x76, 0x35, 0x3e,
  0x48, 0x2a, 0x7e, 0xbe, 0x19, 0x04, 0x84, 0xbe, 0xb8, 0xb5, 0x49, 0x3d,
  0x3f, 0x9c, 0xa4, 0xbd, 0x14, 0xab, 0x97, 0x3d, 0x4c, 0x2d, 0xd3, 0xbe,
  0x72, 0x6d, 0x2b, 0xbe, 0x44, 0x9b, 0x9d, 0x3e, 0x64, 0x34, 0xae, 0xbd,
  0xee, 0xe3, 0x96, 0xbe, 0xd2, 0xee, 0x42, 0xbe, 0x11, 0xd7, 0x86, 0x3d,
  0xb5, 0x42, 0xd8, 0x3c, 0x9e, 0x82, 0x1c, 0xbe, 0xe5, 0xd1, 0x42, 0xbe,
  0x77, 0x32, 0xa8, 0x3c, 0x0d, 0x27, 0xe0, 0x3d, 0x63, 0x7a, 0xfa, 0xbd,
  0xef, 0x82, 0x87, 0x3d, 0x65, 0x06, 0x5a, 0x3e, 0x1b, 0xad, 0x80, 0x3d,
  0x4b, 0xc7, 0x04, 0xbb, 0xc0, 0x80, 0xf9, 0x3d, 0x96, 0xcf, 0x3d, 0xbd,
  0x4a, 0x40, 0x94, 0xbe, 0xf9, 0xd1, 0x1b, 0xbe, 0x05, 0x67, 0x7e, 0x3c,
  0xf5, 0x68, 0x53, 0x3e, 0x43, 0x8b, 0x31, 0xbe, 0xe9, 0xc2, 0x9b, 0xba,
  0x06, 0x32, 0xc4, 0xbd, 0xf0, 0x6b, 0x24, 0x3d, 0xa9, 0xb2, 0xd4, 0x3d,
  0x66, 0xab, 0x25, 0xbd, 0xd5, 0x4a, 0x08, 0x3e, 0x27, 0x2f, 0x0b, 0x3e,
  0xdd, 0x03, 0x4f, 0x3c, 0xd8, 0x94, 0x5c, 0x3d, 0x8b, 0x38, 0x0e, 0xbe,
  0x6f, 0x18, 0x36, 0xbb, 0x76, 0x3d, 0xbd, 0x3b, 0x99, 0xa8, 0x58, 0xbc,
  0x42, 0x83, 0x10, 0xbd, 0x80, 0x37, 0xf3, 0xbc, 0x12, 0x9a, 0x3b, 0xbd,
  0x16, 0x15, 0x98, 0xbd, 0x78, 0x92, 0xe4, 0x3c, 0x0a, 0xa0, 0x3f, 0xbe,
  0x35, 0xfd, 0xd8, 0xbd, 0x54, 0x53, 0x13, 0xbe, 0x61, 0x27, 0xc0, 0xbe,
  0x8a, 0x52, 0x8f, 0x3d, 0xa2, 0x73, 0xf3, 0xbd, 0x94, 0xb3, 0x08, 0x3e,
  0x86, 0xd2, 0x8b, 0xbc, 0x47, 0x04, 0x9e, 0xbc, 0x41, 0xcc, 0x19, 0xbe,
  0xe7, 0x5f, 0xeb, 0xbc, 0xc1, 0x91, 0x08, 0xbe, 0x9a, 0xd1, 0xf2, 0x3d,
  0x5d, 0x8e, 0x42, 0xbe, 0x63, 0x87, 0x02, 0x3e, 0x8b, 0xd9, 0xa3, 0xbd,
  0xe0, 0xa2, 0x2d, 0xbe, 0x6f, 0xcd, 0xfc, 0xbd, 0x9e, 0xa9, 0x38, 0x3e,
  0x79, 0xf3, 0x92, 0x3d, 0xb6, 0xab, 0x42, 0xbe, 0xda, 0x24, 0x01, 0x3d,
  0x04, 0xed, 0xad, 0xbd, 0x14, 0x2f, 0x2c, 0xbd, 0x7f, 0xf3, 0x81, 0x3c,
  0x79, 0x03, 0xc5, 0xbd, 0x2a, 0xca, 0x4f, 0xbd, 0xd7, 0xc5, 0x98, 0x3d,
  0xa4, 0x37, 0xfb, 0x3d, 0xfb, 0xc1, 0xd1, 0xbc, 0x8a, 0x29, 0x20, 0x3e,
  0x64, 0x1a, 0xaa, 0x3c, 0x18, 0xbd, 0x22, 0x3d, 0xa9, 0x73, 0x18, 0x3d,
  0xeb, 0x8c, 0xe9, 0x3d, 0x01, 0x5b, 0x2c, 0xbe, 0xc3, 0x50, 0xe1, 0xbd,
  0x80, 0xee, 0x2b, 0x3e, 0x2e, 0x04, 0x0b, 0xbc, 0x1e, 0x1f, 0xa1, 0xbd,
  0xfd, 0xda, 0xce, 0x3d, 0x00, 0x01, 0xa7, 0xbd, 0xce, 0x1b, 0x36, 0xbe,
  0xde, 0x44, 0xbf, 0x3d, 0x28, 0x8a, 0xc4, 0xbc, 0x28, 0x6c, 0x22, 0x3d,
  0x52, 0x5e, 0x98, 0xbd, 0x4a, 0x54, 0x01, 0x3c, 0x72, 0x44, 0x53, 0xbe,
  0x8a, 0x1c, 0x41, 0x38, 0x1d, 0x86, 0xcf, 0x37, 0x61, 0x6e, 0xb1, 0x3d,
  0xd7, 0x70, 0x4b, 0x3d, 0x3f, 0x1a, 0xcb, 0x3c, 0x3d, 0x9d, 0x09, 0x3e,
  0xfa, 0x7f, 0x8d, 0xbd, 0xcc, 0x7e, 0x27, 0xbd, 0x45, 0x7e, 0x34, 0xbe,
  0x13, 0x37, 0x8e, 0xbe, 0xdd, 0x43, 0xee, 0x3d, 0x81, 0x2e, 0xa6, 0xbd,
  0xe2, 0x87, 0x4d, 0xbe, 0xc9, 0xc2, 0x3e, 0xbd, 0xc3, 0x09, 0xca, 0x3d,
  0x0d, 0xad, 0x3d, 0xbe, 0x7f, 0x54, 0x32, 0x3d, 0x4b, 0xc0, 0x1c, 0x3e,
  0x3b, 0xfe, 0x24, 0xbd, 0x1c, 0xde, 0x8c, 0xbe, 0xe4, 0x78, 0xc1, 0xbd,
  0xa8, 0xec, 0x8f, 0x3e, 0x11, 0xe1, 0x47, 0xbe, 0x75, 0x2b, 0xc8, 0xbd,
  0xac, 0xa4, 0xbe, 0x3c, 0x7c, 0x01, 0x76, 0x3e, 0x95, 0x51, 0xe3, 0x3d,
  0x26, 0x92, 0x64, 0xbd, 0x97, 0x26, 0x16, 0x3e, 0xf5, 0x85, 0x98, 0x3e,
  0x51, 0x55, 0xce, 0xbc, 0x9e, 0x53, 0xa4, 0xbe, 0xda, 0x9c, 0x2f, 0xbe,
  0xb2, 0x43, 0xb8, 0x3e, 0xcf, 0xf3, 0xc9, 0x3e, 0x6a, 0xd0, 0x0d, 0xbe,
  0x63, 0x0d, 0x22, 0xbe, 0x8a, 0xa8, 0x11, 0x3e, 0xc6, 0x7d, 0x49, 0x3c,
  0x8d, 0x45, 0xeb, 0xbd, 0xe2, 0x25, 0x4d, 0x3e, 0xca, 0xec, 0x77, 0x3d,
  0xe4, 0xdc, 0x05, 0x3e, 0xa0, 0xec, 0x8e, 0xbd, 0x17, 0x32, 0xcd, 0x3e,
  0x26, 0xa6, 0x41, 0xbe, 0x49, 0xe2, 0x38, 0xbe, 0xe0, 0xf0, 0xff, 0xbd,
  0xc4, 0x36, 0x44, 0x3c, 0x90, 0xe8, 0x3e, 0x3e, 0xba, 0x0f, 0x93, 0x3e,
  0x6c, 0x46, 0x65, 0x3d, 0x52, 0xd3, 0xec, 0xbd, 0x5f, 0x08, 0x85, 0x3d,
  0x58, 0x28, 0x87, 0x3a, 0x2a, 0x78, 0x33, 0xbe, 0xe2, 0xe1, 0x35, 0x3c,
  0x4c, 0x53, 0xbe, 0x3d, 0xf6, 0xe4, 0xb6, 0xbe, 0xf0, 0xd0, 0x49, 0x3b,
  0x73, 0xcb, 0xf6, 0x3e, 0x3a, 0xf9, 0x88, 0x3e, 0x54, 0x96, 0xa8, 0xbd,
  0x85, 0x3d, 0x03, 0xbd, 0xaf, 0xf5, 0x56, 0xbe, 0x46, 0xc0, 0x81, 0x3e,
  0x67, 0xfd, 0x6f, 0x3e, 0x3a, 0xe8, 0x3b, 0x3e, 0x24, 0x80, 0xa2, 0x3d,
  0x9c, 0x29, 0x46, 0x3c, 0x39, 0x29, 0x9c, 0xbd, 0x29, 0x5c, 0xa6, 0xbc,
  0x91, 0xb1, 0x31, 0xbd, 0x43, 0x9c, 0x29, 0x3c, 0x2d, 0x73, 0x00, 0x3c,
  0x7e, 0x8d, 0x17, 0x3e, 0x06, 0xd2, 0xa9, 0x3e, 0x42, 0xc2, 0x89, 0x3d,
  0x97, 0xb1, 0x8c, 0xbd, 0xe2, 0xc2, 0x0c, 0xbe, 0x92, 0x75, 0x3d, 0xbd,
  0x15, 0x3b, 0xa4, 0x3d, 0x0a, 0xa2, 0x55, 0x3e, 0x7f, 0xb3, 0x6f, 0x3e,
  0x42, 0x60, 0xcc, 0xbd, 0x7f, 0xe7, 0x2f, 0xbd, 0x13, 0xfa, 0x3c, 0xbe,
  0x33, 0x44, 0x27, 0xbc, 0x72, 0x17, 0x5f, 0x3d, 0x45, 0xaf, 0x51, 0x3e,
  0xf3, 0x11, 0x83, 0x3e, 0x91, 0x60, 0xab, 0xbd, 0x99, 0xf2, 0x4f, 0x3e,
  0xc6, 0x32, 0x33, 0x3d, 0x24, 0x72, 0x49, 0xbd, 0x5c, 0x37, 0x80, 0x3c,
  0x3b, 0x66, 0x0c, 0xbc, 0x00, 0x10, 0x8a, 0x3d, 0xb2, 0x05, 0xdd, 0x3e,
  0xf2, 0x9d, 0xce, 0xbd, 0x52, 0xcf, 0xeb, 0xbd, 0xe0, 0x05, 0xbb, 0x3c,
  0xb8, 0x6d, 0x22, 0xbd, 0x6a, 0x1d, 0x2f, 0x3a, 0xe2, 0x9b, 0x18, 0xbe,
  0x33, 0x97, 0xf3, 0x3b, 0x1a, 0x93, 0x1e, 0x3e, 0xa2, 0x4d, 0xea, 0x3d,
  0x2c, 0x24, 0x36, 0x3e, 0xe5, 0x11, 0x96, 0x3d, 0xcd, 0xd9, 0x5d, 0xbe,
  0x4c, 0xd3, 0x5f, 0xbe, 0xf5, 0xb3, 0x0f, 0xbe, 0x32, 0x37, 0x24, 0x3e,
  0x5c, 0x39, 0x8a, 0x3e, 0x3a, 0xe1, 0x53, 0xbe, 0x99, 0xac, 0x80, 0xbd,
  0x2b, 0x73, 0x06, 0x3d, 0x41, 0xe0, 0x06, 0xbe, 0x3e, 0xa2, 0xae, 0x38,
  0x2a, 0xe2, 0x08, 0x3d, 0x77, 0x40, 0x5d, 0x3d, 0x7a, 0x61, 0x35, 0xbe,
  0x8e, 0xac, 0x8a, 0xbd, 0xf4, 0xca, 0x35, 0x3e, 0x7c, 0x8e, 0x08, 0xbc,
  0xa6, 0xc3, 0x8e, 0xbe, 0xbe, 0x2f, 0xf6, 0xbd, 0xe3, 0x3b, 0xab, 0x3d,
  0xf2, 0xce, 0x79, 0x3e, 0x40, 0x3d, 0x82, 0x3e, 0x4a, 0xfe, 0xff, 0xff,
  0x10, 0x00, 0x00, 0x00, 0x05, 0x00, 0x00, 0x00, 0x14, 0x00, 0x00, 0x00,
  0x2c, 0x00, 0x00, 0x00, 0x02, 0x00, 0x00, 0x00, 0x10, 0x00, 0x00, 0x00,
  0x70, 0x00, 0x00, 0x00, 0x17, 0x00, 0x00, 0x00, 0x73, 0x65, 0x71, 0x75,
  0x65, 0x6e, 0x74, 0x69, 0x61, 0x6c, 0x2f, 0x64, 0x65, 0x6e, 0x73, 0x65,
  0x2f, 0x4d, 0x61, 0x74, 0x4d, 0x75, 0x6c, 0x00, 0x38, 0xfe, 0xff, 0xff,
  0x2e, 0xff, 0xff, 0xff, 0x04, 0x00, 0x00, 0x00, 0x08, 0x00, 0x00, 0x00,
  0xff, 0xff, 0xff, 0xff, 0x70, 0x00, 0x00, 0x00, 0x00, 0x00, 0x0e, 0x00,
  0x18, 0x00, 0x08, 0x00, 0x07, 0x00, 0x0c, 0x00, 0x10, 0x00, 0x14, 0x00,
  0x0e, 0x00, 0x00, 0x00, 0x00, 0x00, 0x00, 0x02, 0x10, 0x00, 0x00, 0x00,
  0x04, 0x00, 0x00, 0x00, 0x10, 0x00, 0x00, 0x00, 0x2c, 0x00, 0x00, 0x00,
  0x01, 0x00, 0x00, 0x00, 0x02, 0x00, 0x00, 0x00, 0x18, 0x00, 0x00, 0x00,
  0x73, 0x65, 0x71, 0x75, 0x65, 0x6e, 0x74, 0x69, 0x61, 0x6c, 0x2f, 0x66,
  0x6c, 0x61, 0x74, 0x74, 0x65, 0x6e, 0x2f, 0x43, 0x6f, 0x6e, 0x73, 0x74,
  0x00, 0x00, 0x00, 0x00, 0xa0, 0xfe, 0xff, 0xff, 0x96, 0xff, 0xff, 0xff,
  0x04, 0x00, 0x00, 0x00, 0x0c, 0x00, 0x00, 0x00, 0x28, 0xf0, 0x2e, 0xc0,
  0x0a, 0x30, 0x96, 0x3e, 0xc7, 0xb7, 0x33, 0x3f, 0x0a, 0xff, 0xff, 0xff,
  0x10, 0x00, 0x00, 0x00, 0x03, 0x00, 0x00, 0x00, 0x10, 0x00, 0x00, 0x00,
  0x3c, 0x00, 0x00, 0x00, 0x01, 0x00, 0x00, 0x00, 0x03, 0x00, 0x00, 0x00,
  0x29, 0x00, 0x00, 0x00, 0x73, 0x65, 0x71, 0x75, 0x65, 0x6e, 0x74, 0x69,
  0x61, 0x6c, 0x2f, 0x64, 0x65, 0x6e, 0x73, 0x65, 0x5f, 0x31, 0x2f, 0x42,
  0x69, 0x61, 0x73, 0x41, 0x64, 0x64, 0x2f, 0x52, 0x65, 0x61, 0x64, 0x56,
  0x61, 0x72, 0x69, 0x61, 0x62, 0x6c, 0x65, 0x4f, 0x70, 0x00, 0x00, 0x00,
  0x60, 0xff, 0xff, 0xff, 0x00, 0x00, 0x06, 0x00, 0x08, 0x00, 0x04, 0x00,
  0x06, 0x00, 0x00, 0x00, 0x04, 0x00, 0x00, 0x00, 0x40, 0x00, 0x00, 0x00,
  0xe1, 0xe9, 0x09, 0xbf, 0xb0, 0xcf, 0x05, 0x40, 0xaf, 0xa5, 0x0f, 0x3f,
  0x00, 0xe7, 0xd4, 0xbe, 0x40, 0x5f, 0x9c, 0xbe, 0x61, 0xbd, 0x7f, 0xbf,
  0xf6, 0x63, 0x35, 0xbd, 0x0b, 0x0d, 0x01, 0x40, 0x6b, 0xf7, 0x9f, 0xbe,
  0x61, 0x67, 0xbb, 0x3f, 0x6c, 0x42, 0x72, 0xbe, 0x40, 0x51, 0xf9, 0x3e,
  0x52, 0x50, 0xa6, 0xbe, 0x5b, 0xa6, 0xeb, 0x3d, 0xeb, 0xc1, 0xcb, 0xbe,
  0xde, 0x88, 0xeb, 0x3e, 0xae, 0xff, 0xff, 0xff, 0x10, 0x00, 0x00, 0x00,
  0x02, 0x00, 0x00, 0x00, 0x10, 0x00, 0x00, 0x00, 0x3c, 0x00, 0x00, 0x00,
  0x01, 0x00, 0x00, 0x00, 0x10, 0x00, 0x00, 0x00, 0x27, 0x00, 0x00, 0x00,
  0x73, 0x65, 0x71, 0x75, 0x65, 0x6e, 0x74, 0x69, 0x61, 0x6c, 0x2f, 0x64,
  0x65, 0x6e, 0x73, 0x65, 0x2f, 0x42, 0x69, 0x61, 0x73, 0x41, 0x64, 0x64,
  0x2f, 0x52, 0x65, 0x61, 0x64, 0x56, 0x61, 0x72, 0x69, 0x61, 0x62, 0x6c,
  0x65, 0x4f, 0x70, 0x00, 0x04, 0x00, 0x06, 0x00, 0x04, 0x00, 0x00, 0x00,
  0x00, 0x00, 0x0e, 0x00, 0x14, 0x00, 0x04, 0x00, 0x00, 0x00, 0x08, 0x00,
  0x0c, 0x00, 0x10, 0x00, 0x0e, 0x00, 0x00, 0x00, 0x10, 0x00, 0x00, 0x00,
  0x01, 0x00, 0x00, 0x00, 0x1c, 0x00, 0x00, 0x00, 0x2c, 0x00, 0x00, 0x00,
  0x04, 0x00, 0x00, 0x00, 0x01, 0x00, 0x00, 0x00, 0x40, 0x00, 0x00, 0x00,
  0x03, 0x00, 0x00, 0x00, 0x01, 0x00, 0x00, 0x00, 0x0c, 0x00, 0x00, 0x00,
  0x63, 0x6f, 0x6e, 0x76, 0x32, 0x64, 0x5f, 0x69, 0x6e, 0x70, 0x75, 0x74,
  0x00, 0x00, 0x00, 0x00, 0xfc, 0xff, 0xff, 0xff, 0x04, 0x00, 0x04, 0x00,
  0x04, 0x00, 0x00, 0x00
};
unsigned int model_tflite_len = 12316;